// SqueezeNetMini for ESP32-CAM - Handwritten Digit Recognition
// Model size: 34824 bytes (34.0 KB)
// Input shape: [np.int32(1), np.int32(32), np.int32(32), np.int32(3)], dtype: <class 'numpy.uint8'>
// Output shape: [np.int32(1), np.int32(10)], dtype: <class 'numpy.uint8'>
// Converted from: SqueezeNetMini.tflite

#ifndef SQUEEZENETMINI_MODEL_H
#define SQUEEZENETMINI_MODEL_H

#include <stdint.h>

#define SQUEEZENETMINI_INPUT_WIDTH 32
#define SQUEEZENETMINI_INPUT_HEIGHT 32
#define SQUEEZENETMINI_INPUT_CHANNELS 3
#define SQUEEZENETMINI_NUM_CLASSES 10

const float squeezenetmini_input_scale = 0.003921568859368563f;
const int squeezenetmini_input_zero_point = 0;
const float squeezenetmini_output_scale = 0.00390625f;
const int squeezenetmini_output_zero_point = 0;

const unsigned int squeezenetmini_model_len = 34824;
alignas(8) const unsigned char squeezenetmini_model[] = {
  0x20,0x00,0x00,0x00,0x54,0x46,0x4c,0x33,0x00,0x00,0x00,0x00,0x14,0x00,0x20,0x00,
  0x1c,0x00,0x18,0x00,0x14,0x00,0x10,0x00,0x0c,0x00,0x00,0x00,0x08,0x00,0x04,0x00,
  0x14,0x00,0x00,0x00,0x1c,0x00,0x00,0x00,0x98,0x00,0x00,0x00,0x18,0x01,0x00,0x00,
  0xb8,0x48,0x00,0x00,0xc8,0x48,0x00,0x00,0x2c,0x87,0x00,0x00,0x03,0x00,0x00,0x00,
  0x01,0x00,0x00,0x00,0x10,0x00,0x00,0x00,0x00,0x00,0x0a,0x00,0x10,0x00,0x0c,0x00,
  0x08,0x00,0x04,0x00,0x0a,0x00,0x00,0x00,0x0c,0x00,0x00,0x00,0x1c,0x00,0x00,0x00,
  0x3c,0x00,0x00,0x00,0x0f,0x00,0x00,0x00,0x73,0x65,0x72,0x76,0x69,0x6e,0x67,0x5f,
  0x64,0x65,0x66,0x61,0x75,0x6c,0x74,0x00,0x01,0x00,0x00,0x00,0x04,0x00,0x00,0x00,
  0x68,0xff,0xff,0xff,0x35,0x00,0x00,0x00,0x04,0x00,0x00,0x00,0x08,0x00,0x00,0x00,
  0x6f,0x75,0x74,0x70,0x75,0x74,0x5f,0x30,0x00,0x00,0x00,0x00,0x01,0x00,0x00,0x00,
  0x04,0x00,0x00,0x00,0x22,0xb3,0xff,0xff,0x04,0x00,0x00,0x00,0x0d,0x00,0x00,0x00,
  0x69,0x6e,0x70,0x75,0x74,0x5f,0x6c,0x61,0x79,0x65,0x72,0x5f,0x31,0x00,0x00,0x00,
  0x03,0x00,0x00,0x00,0x5c,0x00,0x00,0x00,0x2c,0x00,0x00,0x00,0x04,0x00,0x00,0x00,
  0xb8,0xff,0xff,0xff,0x39,0x00,0x00,0x00,0x04,0x00,0x00,0x00,0x13,0x00,0x00,0x00,
  0x43,0x4f,0x4e,0x56,0x45,0x52,0x53,0x49,0x4f,0x4e,0x5f,0x4d,0x45,0x54,0x41,0x44,
  0x41,0x54,0x41,0x00,0xdc,0xff,0xff,0xff,0x38,0x00,0x00,0x00,0x04,0x00,0x00,0x00,
  0x13,0x00,0x00,0x00,0x6d,0x69,0x6e,0x5f,0x72,0x75,0x6e,0x74,0x69,0x6d,0x65,0x5f,
  0x76,0x65,0x72,0x73,0x69,0x6f,0x6e,0x00,0x08,0x00,0x0c,0x00,0x08,0x00,0x04,0x00,
  0x08,0x00,0x00,0x00,0x37,0x00,0x00,0x00,0x04,0x00,0x00,0x00,0x13,0x00,0x00,0x00,
  0x6d,0x69,0x6e,0x5f,0x72,0x75,0x6e,0x74,0x69,0x6d,0x65,0x5f,0x76,0x65,0x72,0x73,
  0x69,0x6f,0x6e,0x00,0x3a,0x00,0x00,0x00,0x9c,0x47,0x00,0x00,0x94,0x47,0x00,0x00,
  0x7c,0x47,0x00,0x00,0x44,0x47,0x00,0x00,0xb4,0x44,0x00,0x00,0x24,0x44,0x00,0x00,
  0x14,0x32,0x00,0x00,0x84,0x31,0x00,0x00,0x74,0x2f,0x00,0x00,0x24,0x2f,0x00,0x00,
  0x14,0x2b,0x00,0x00,0x84,0x2a,0x00,0x00,0x74,0x18,0x00,0x00,0xe4,0x17,0x00,0x00,
  0xd4,0x15,0x00,0x00,0x84,0x15,0x00,0x00,0x74,0x13,0x00,0x00,0x24,0x13,0x00,0x00,
  0x94,0x0e,0x00,0x00,0x44,0x0e,0x00,0x00,0xb4,0x0d,0x00,0x00,0x84,0x0d,0x00,0x00,
  0x74,0x0c,0x00,0x00,0x24,0x0c,0x00,0x00,0x94,0x07,0x00,0x00,0x44,0x07,0x00,0x00,
  0xb4,0x06,0x00,0x00,0x84,0x06,0x00,0x00,0x74,0x05,0x00,0x00,0xe4,0x04,0x00,0x00,
  0x74,0x01,0x00,0x00,0x6c,0x01,0x00,0x00,0x64,0x01,0x00,0x00,0x5c,0x01,0x00,0x00,
  0x54,0x01,0x00,0x00,0x4c,0x01,0x00,0x00,0x44,0x01,0x00,0x00,0x3c,0x01,0x00,0x00,
  0x34,0x01,0x00,0x00,0x2c,0x01,0x00,0x00,0x24,0x01,0x00,0x00,0x1c,0x01,0x00,0x00,
  0x14,0x01,0x00,0x00,0x0c,0x01,0x00,0x00,0x04,0x01,0x00,0x00,0xfc,0x00,0x00,0x00,
  0xf4,0x00,0x00,0x00,0xec,0x00,0x00,0x00,0xe4,0x00,0x00,0x00,0xdc,0x00,0x00,0x00,
  0xd4,0x00,0x00,0x00,0xcc,0x00,0x00,0x00,0xc4,0x00,0x00,0x00,0xbc,0x00,0x00,0x00,
  0xb4,0x00,0x00,0x00,0x94,0x00,0x00,0x00,0x74,0x00,0x00,0x00,0x04,0x00,0x00,0x00,
  0xae,0xb4,0xff,0xff,0x04,0x00,0x00,0x00,0x60,0x00,0x00,0x00,0x0c,0x00,0x00,0x00,
  0x08,0x00,0x0e,0x00,0x08,0x00,0x04,0x00,0x08,0x00,0x00,0x00,0x10,0x00,0x00,0x00,
  0x28,0x00,0x00,0x00,0x00,0x00,0x06,0x00,0x08,0x00,0x04,0x00,0x06,0x00,0x00,0x00,
  0x04,0x00,0x00,0x00,0x01,0x00,0x00,0x00,0xeb,0x03,0x00,0x00,0x0c,0x00,0x18,0x00,
  0x14,0x00,0x10,0x00,0x0c,0x00,0x04,0x00,0x0c,0x00,0x00,0x00,0x78,0xfd,0x27,0xf6,
  0x44,0x98,0x51,0x4a,0x02,0x00,0x00,0x00,0x02,0x00,0x00,0x00,0x04,0x00,0x00,0x00,
  0x06,0x00,0x00,0x00,0x32,0x2e,0x31,0x39,0x2e,0x30,0x00,0x00,0x1a,0xb5,0xff,0xff,
  0x04,0x00,0x00,0x00,0x10,0x00,0x00,0x00,0x00,0x00,0x00,0x00,0x00,0x00,0x00,0x00,
  0x00,0x00,0x00,0x00,0x00,0x00,0x00,0x00,0x36,0xb5,0xff,0xff,0x04,0x00,0x00,0x00,
  0x10,0x00,0x00,0x00,0x31,0x2e,0x31,0x34,0x2e,0x30,0x00,0x00,0x00,0x00,0x00,0x00,
  0x00,0x00,0x00,0x00,0x48,0x7c,0xff,0xff,0x4c,0x7c,0xff,0xff,0x50,0x7c,0xff,0xff,
  0x54,0x7c,0xff,0xff,0x58,0x7c,0xff,0xff,0x5c,0x7c,0xff,0xff,0x60,0x7c,0xff,0xff,
  0x64,0x7c,0xff,0xff,0x68,0x7c,0xff,0xff,0x6c,0x7c,0xff,0xff,0x70,0x7c,0xff,0xff,
  0x74,0x7c,0xff,0xff,0x78,0x7c,0xff,0xff,0x7c,0x7c,0xff,0xff,0x80,0x7c,0xff,0xff,
  0x84,0x7c,0xff,0xff,0x88,0x7c,0xff,0xff,0x8c,0x7c,0xff,0xff,0x90,0x7c,0xff,0xff,
  0x94,0x7c,0xff,0xff,0x98,0x7c,0xff,0xff,0x9c,0x7c,0xff,0xff,0xa0,0x7c,0xff,0xff,
  0xa4,0x7c,0xff,0xff,0xb2,0xb5,0xff,0xff,0x04,0x00,0x00,0x00,0x60,0x03,0x00,0x00,
  0xf2,0xe5,0xfd,0xb9,0xa1,0x96,0xf8,0x17,0x59,0xb9,0xe6,0x17,0xc9,0xca,0x21,0x2f,
  0x27,0x61,0xb6,0x8d,0x81,0x9a,0xfa,0x08,0x65,0x5d,0x3f,0x9b,0xd6,0x8d,0x15,0x0b,
  0xfc,0xef,0xfd,0x07,0x21,0x2c,0x21,0x28,0x50,0x50,0x35,0x1d,0x36,0x24,0xfd,0x04,
  0xef,0x16,0xf9,0xc7,0xbb,0x81,0x52,0x32,0x58,0x51,0x4b,0x69,0x0f,0x55,0x3c,0x2a,
  0xf4,0x07,0xfe,0xed,0x16,0x05,0xee,0x34,0x9e,0xc4,0x9d,0x81,0xcb,0x8e,0xc5,0xda,
  0xa7,0x4c,0x34,0x1f,0x10,0x38,0x25,0x1b,0x11,0x64,0xa6,0x84,0x98,0xb7,0xe8,0xad,
  0x3c,0x2d,0xfb,0xb8,0x81,0xa2,0x84,0xe5,0xef,0x18,0x1b,0x0c,0x2f,0xf5,0x02,0xa7,
  0x94,0x9b,0x89,0x89,0xae,0x6d,0x64,0x3b,0xec,0xe6,0x2a,0xa5,0xad,0xc6,0x3e,0x7f,
  0x7f,0x39,0x53,0x6b,0xfa,0x05,0x13,0xdc,0xdf,0xfa,0x39,0x4c,0x3b,0x56,0x7e,0x7f,
  0x8b,0xa0,0xa0,0x0d,0xee,0x09,0x30,0x0e,0x14,0xab,0x9f,0xa2,0x14,0x05,0x3f,0x0a,
  0x4f,0x16,0x04,0x14,0x28,0x0a,0x20,0x1b,0x5d,0x48,0x54,0xf4,0xfc,0xd3,0xc3,0x83,
  0x81,0x95,0x83,0x8e,0x21,0x2b,0x55,0x04,0xfb,0x15,0x09,0x46,0x4a,0xf3,0x24,0x40,
  0x0a,0x61,0x38,0x36,0x65,0x56,0x1c,0xc5,0xc8,0xe8,0xf3,0xed,0x10,0xe2,0xf2,0x5e,
  0x41,0x09,0x7b,0x74,0x28,0x1e,0x7f,0x30,0x13,0xf1,0x09,0xfb,0xea,0xdd,0x2b,0x32,
  0x1b,0x51,0x29,0x3d,0xe0,0x1a,0x10,0x61,0x4b,0x40,0x70,0x7f,0x4e,0x0a,0xdd,0xdd,
  0x1b,0xf1,0xe9,0x4d,0x1e,0x3e,0x1f,0x20,0x21,0x6f,0x6d,0x7f,0xf1,0xf7,0x17,0xcb,
  0xeb,0xf2,0x1d,0x08,0xfc,0x51,0x46,0x4f,0xeb,0xfe,0xf0,0xfa,0xfe,0xf2,0x4a,0x24,
  0x33,0xfa,0xd9,0xdf,0xab,0xa2,0x81,0x28,0x3d,0x49,0xf6,0x00,0x13,0xaf,0xb8,0xad,
  0x5b,0x5e,0x31,0x37,0x34,0x67,0x2b,0x40,0x41,0x3b,0x30,0x47,0x38,0x06,0x45,0x56,
  0x59,0x3e,0xa8,0x81,0x9c,0xd0,0x04,0x05,0x39,0x1a,0x2b,0xc0,0xc7,0x9c,0xe7,0xc9,
  0xb0,0x30,0x17,0xf8,0x32,0x35,0x18,0x5a,0x7f,0x6f,0x1d,0x6d,0x1f,0xc2,0x92,0xde,
  0xd7,0x09,0xed,0xbf,0xfa,0xf5,0xee,0xc8,0xdd,0x52,0x50,0x14,0x6d,0x40,0x7d,0x5c,
  0x6c,0x76,0x3d,0x2b,0x27,0xc6,0xc4,0x1e,0x35,0x27,0xf8,0x19,0x01,0xf6,0x43,0x40,
  0x51,0x81,0x8e,0xaf,0xce,0xe0,0xf1,0x3d,0x0e,0x2c,0x40,0x2c,0x7f,0x21,0x47,0x3f,
  0xed,0xef,0x41,0x27,0x1a,0x65,0x3d,0x42,0x25,0xcc,0xfe,0xf7,0xd8,0xd5,0xdc,0xba,
  0xbe,0xae,0x8a,0xba,0xcb,0xd4,0xf2,0xe6,0xe5,0xe0,0xd1,0xbf,0xae,0xb7,0xc6,0xc6,
  0xcb,0x05,0x10,0xf2,0x04,0x08,0x0c,0xf8,0xe3,0xdc,0x23,0x57,0x3a,0x70,0x4d,0x7f,
  0x2f,0x44,0x56,0xaf,0x97,0xb7,0xe4,0xa3,0xa6,0xd9,0xca,0xbc,0xe8,0x00,0xe5,0x2f,
  0x22,0xeb,0x81,0xac,0xb4,0x1f,0xd0,0x01,0x58,0x41,0x59,0x49,0x49,0x22,0x23,0x39,
  0x33,0x1f,0x17,0x08,0xeb,0xbf,0xd1,0xd3,0xc6,0xd8,0x84,0x81,0x8b,0xe4,0xc2,0xdc,
  0x32,0x07,0x0d,0x56,0x45,0x50,0x83,0x9e,0x88,0xd8,0xe8,0x05,0x7f,0x4f,0x67,0xb5,
  0xe6,0xb7,0x25,0x0b,0xd4,0x1a,0x23,0x20,0x40,0x43,0x47,0x6d,0x61,0x54,0x09,0x0a,
  0x27,0x50,0x42,0x3a,0x32,0x34,0x44,0xde,0xf3,0xee,0x1c,0x28,0x33,0x1c,0xf5,0xed,
  0xc5,0x87,0x81,0x6e,0x46,0x7c,0x1a,0x38,0x1e,0x90,0x81,0x84,0xf9,0xc1,0xaa,0x13,
  0x18,0x0d,0x71,0x4d,0x6c,0xc7,0xbf,0x81,0xc5,0xd1,0xb7,0x27,0x24,0x2f,0x37,0x4a,
  0x47,0xce,0xca,0x97,0x00,0xf4,0x09,0x52,0x27,0x3e,0x4a,0x3d,0x1f,0x0e,0xf7,0xfc,
  0x06,0xf0,0xf5,0x12,0x21,0xe7,0x15,0x30,0x3b,0x81,0xa3,0xb1,0xc2,0xf9,0xc5,0x18,
  0x23,0x2f,0x25,0xf2,0x3d,0x16,0x29,0xc3,0xf2,0x0d,0x41,0x5e,0x34,0x1c,0x07,0x2a,
  0x50,0x43,0xe1,0x40,0x04,0x2f,0x00,0x81,0xc3,0xe6,0xb8,0xa3,0x09,0x23,0x30,0x01,
  0x6f,0x35,0x3a,0x65,0x43,0x7f,0xc8,0xf2,0xbe,0xf8,0x10,0x0c,0x1f,0xe7,0xd9,0xe3,
  0xad,0x94,0xd8,0xfb,0xfb,0x88,0x8b,0xb5,0xac,0x99,0x89,0xf0,0xf8,0xe0,0x48,0xf3,
  0x50,0xfc,0xed,0xca,0x35,0x2b,0x03,0x10,0x0f,0x1b,0x9c,0xbb,0xcf,0xfa,0xe5,0x03,
  0x48,0x5d,0x7f,0xf1,0xf7,0xf0,0xbe,0x88,0x98,0xf8,0x29,0xce,0x57,0x09,0x50,0x13,
  0x06,0xbf,0xa8,0x81,0xcb,0x4e,0x37,0x53,0xfc,0x15,0xfc,0x91,0xc2,0xb4,0x48,0x7f,
  0x6a,0x44,0x21,0x0d,0x08,0x06,0x36,0x4b,0x59,0x4d,0xd4,0xcd,0xc7,0xa2,0xae,0xe2,
  0x56,0x1f,0x42,0x9d,0xbe,0xc8,0xad,0x98,0xa3,0xc5,0xcd,0x01,0x46,0x3a,0x52,0x49,
  0x38,0x28,0xef,0xb5,0xad,0xc0,0xe2,0x0b,0xd4,0xc5,0xf2,0x0d,0x18,0x01,0x49,0x4b,
  0x40,0x3d,0x7f,0x7f,0x44,0x2f,0x38,0x5b,0x42,0x50,0x2e,0xe4,0x16,0xfb,0xdd,0xdd,
  0x02,0xeb,0xee,0xba,0xfe,0xd1,0x35,0x5b,0x25,0x71,0x3e,0x36,0x7d,0x7f,0x7f,0x26,
  0x21,0xfd,0x1e,0x17,0x04,0x7f,0x66,0x53,0x15,0x00,0x1e,0x1e,0x17,0x0a,0xf3,0xf2,
  0xfa,0x3a,0xff,0x49,0xd8,0xa8,0xb5,0xad,0x9a,0xa3,0x67,0x73,0x6a,0x1b,0x0b,0x3c,
  0x43,0x49,0x41,0x43,0x58,0x55,0xd9,0x09,0x05,0xe7,0xe8,0x05,0x77,0x7f,0x78,0x07,
  0x36,0x06,0x12,0x2b,0x25,0xee,0xf5,0x0d,0x28,0x87,0xe2,0x5e,0x16,0x81,0x88,0xc9,
  0xed,0x1e,0xa0,0x0d,0xa9,0xf4,0xcf,0x88,0x3e,0xc1,0xc6,0x88,0xf2,0xd5,0xe2,0xd0,
  0x1e,0xb9,0xff,0xff,0x04,0x00,0x00,0x00,0x80,0x00,0x00,0x00,0x18,0x23,0x00,0x00,
  0x13,0x09,0x00,0x00,0x93,0x0c,0x00,0x00,0x1c,0xef,0xff,0xff,0x00,0xcc,0xff,0xff,
  0x8f,0x04,0x00,0x00,0x06,0x15,0x00,0x00,0x58,0xfe,0xff,0xff,0x7c,0x01,0x00,0x00,
  0x2d,0xf1,0xff,0xff,0x4d,0x09,0x00,0x00,0x18,0xff,0xff,0xff,0xd9,0x1d,0x00,0x00,
  0x81,0x13,0x00,0x00,0xce,0xa4,0xff,0xff,0x3a,0x07,0x00,0x00,0x71,0x34,0x00,0x00,
  0xae,0x27,0x00,0x00,0x56,0xe7,0xff,0xff,0x19,0xe8,0xff,0xff,0x7a,0x07,0x00,0x00,
  0xf7,0x0c,0x00,0x00,0x21,0xfe,0xff,0xff,0x8f,0xd4,0xff,0xff,0xd1,0x12,0x00,0x00,
  0x40,0x21,0x00,0x00,0x44,0xfb,0xff,0xff,0x3e,0xfc,0xff,0xff,0xe3,0x0f,0x00,0x00,
  0x2a,0x0c,0x00,0x00,0x83,0x02,0x00,0x00,0x1d,0x91,0xff,0xff,0xaa,0xb9,0xff,0xff,
  0x04,0x00,0x00,0x00,0x00,0x01,0x00,0x00,0x19,0x2e,0xca,0x2f,0x2c,0x47,0xda,0x07,
  0xfd,0xe3,0x4c,0x36,0x37,0x0e,0x93,0xc7,0x0f,0x81,0xff,0x73,0x2a,0x07,0x0b,0xae,
  0x56,0x3d,0x29,0xfd,0x1d,0xf6,0x0e,0xf6,0xe2,0xee,0x4a,0xd1,0xa3,0xe1,0xd9,0x27,
  0x51,0x19,0xe5,0xce,0xf0,0xca,0x5a,0x7f,0x73,0x59,0x11,0xde,0xbb,0xe0,0x1a,0x50,
  0x17,0xc8,0x27,0xe1,0xef,0x07,0x26,0xc6,0x43,0x8d,0xde,0x84,0x0d,0xd2,0x9d,0x04,
  0x22,0x3e,0x3c,0x19,0xb0,0xde,0xfd,0xaa,0x81,0x28,0xb2,0xb0,0xc1,0x1f,0x17,0x4e,
  0x47,0x99,0x9f,0x2c,0xf5,0x32,0xba,0xef,0xb8,0x67,0x5d,0x1c,0x0e,0x2f,0x7f,0xca,
  0x19,0x04,0xfd,0x5b,0x28,0x6c,0xf9,0xe9,0x8c,0x2a,0xed,0xa9,0x42,0x4a,0x19,0x3f,
  0xc6,0xb5,0xf0,0xe9,0xf5,0x5d,0x00,0xc4,0x4b,0xf2,0xd5,0xe0,0xb1,0x3d,0x81,0x2f,
  0x02,0x21,0xd7,0xf8,0x33,0xd8,0x20,0x04,0xfa,0xd4,0x1c,0x02,0x01,0xf2,0xda,0xc0,
  0x48,0x01,0x14,0x33,0x1e,0xde,0xf3,0x08,0xf7,0x84,0xfa,0x2d,0x0d,0x08,0x88,0x40,
  0xf4,0x02,0xfa,0x4a,0x40,0x31,0xdf,0xa1,0xec,0xab,0xcf,0x81,0x4e,0x2e,0xdf,0x22,
  0x2f,0x6d,0x97,0x3c,0x46,0xb2,0x25,0xff,0xbf,0x51,0x09,0x24,0xa2,0x00,0x27,0x2c,
  0x2b,0x56,0x5f,0xe9,0x27,0x52,0xe3,0xc9,0xbd,0xc9,0x51,0x1c,0x9f,0xf2,0x38,0xcc,
  0xde,0xac,0x4f,0x34,0x3c,0x7f,0x41,0x13,0x97,0x0f,0x25,0x0a,0x89,0x1b,0x89,0x38,
  0x81,0x19,0x50,0xe1,0xd6,0x3e,0xe0,0x18,0x56,0xad,0x07,0xfd,0xc3,0x99,0x90,0xca,
  0x91,0x03,0xab,0xa7,0x81,0xba,0x7f,0xd2,0xb6,0xba,0xff,0xff,0x04,0x00,0x00,0x00,
  0x20,0x00,0x00,0x00,0x02,0x01,0x00,0x00,0x61,0x03,0x00,0x00,0x94,0xfe,0xff,0xff,
  0x4e,0x04,0x00,0x00,0x8e,0x00,0x00,0x00,0x03,0x01,0x00,0x00,0x8d,0x01,0x00,0x00,
  0x1a,0xfd,0xff,0xff,0xe2,0xba,0xff,0xff,0x04,0x00,0x00,0x00,0x80,0x00,0x00,0x00,
  0x0c,0x0b,0xdb,0x2a,0x81,0xc8,0xb4,0x22,0xf0,0xb9,0x17,0xa0,0x4d,0xd1,0xea,0x81,
  0x18,0x05,0x81,0xdb,0x73,0x53,0x03,0x39,0x7f,0xd5,0x3f,0xad,0xb0,0x5f,0x3e,0xe0,
  0x40,0x28,0x22,0x7f,0x21,0x0e,0x99,0x59,0xc6,0x5c,0x24,0x1f,0x81,0xe3,0x85,0xb9,
  0xd2,0x49,0x7f,0x70,0x0b,0x0f,0x7a,0x57,0xa9,0x1b,0x2d,0x7f,0x1e,0xb6,0x53,0x09,
  0x26,0x09,0xdf,0x2d,0x81,0xc7,0x93,0x1f,0xc3,0x33,0x81,0x5b,0x06,0x79,0xae,0x34,
  0x21,0xc2,0x03,0xd8,0x7f,0x10,0xd3,0x26,0xc5,0x3f,0xb9,0xe7,0x25,0x81,0x58,0xf9,
  0x10,0x44,0xd2,0x3e,0x81,0xa9,0xa2,0x16,0x95,0x9f,0xb2,0x81,0xa5,0x56,0xdd,0x2a,
  0x55,0xb7,0x49,0xf4,0x5b,0x81,0x2b,0x97,0x61,0x40,0x9e,0x4b,0x94,0xb9,0x7f,0x34,
  0x6e,0xbb,0xff,0xff,0x04,0x00,0x00,0x00,0x40,0x00,0x00,0x00,0xff,0x00,0x00,0x00,
  0xdf,0xfd,0xff,0xff,0x51,0xff,0xff,0xff,0xc2,0x01,0x00,0x00,0x2b,0x03,0x00,0x00,
  0x0c,0x05,0x00,0x00,0xe1,0x00,0x00,0x00,0xb4,0xff,0xff,0xff,0xe6,0x02,0x00,0x00,
  0x13,0xff,0xff,0xff,0x5d,0x00,0x00,0x00,0x8c,0x01,0x00,0x00,0xb6,0x03,0x00,0x00,
  0xa3,0xff,0xff,0xff,0xe5,0x02,0x00,0x00,0x41,0x01,0x00,0x00,0xba,0xbb,0xff,0xff,
  0x04,0x00,0x00,0x00,0x80,0x04,0x00,0x00,0x04,0x4e,0xf8,0xfd,0x52,0xac,0xfe,0x12,
  0xc4,0x5c,0x16,0x3f,0xe6,0xca,0xfb,0xde,0x46,0xb4,0x17,0xfd,0x4b,0x2b,0xed,0xe6,
  0xed,0x08,0x04,0xe8,0x39,0x81,0xd9,0x22,0x18,0x17,0xe1,0x5e,0x38,0x0e,0xf2,0x12,
  0x4a,0xe5,0xf7,0x03,0x0a,0x64,0x4c,0xfb,0x07,0x0d,0xec,0xf4,0xeb,0x35,0xfc,0xe8,
  0x01,0x00,0xde,0xe0,0x07,0xb9,0xff,0xdf,0x03,0xf4,0x25,0xd2,0x3e,0x20,0x14,0xfe,
  0x1e,0x06,0xe6,0xbb,0xc2,0xcd,0x24,0xee,0x18,0x19,0x2b,0x3a,0x9b,0x12,0xc8,0x1f,
  0x20,0xbf,0x27,0x7f,0xe7,0x0f,0x0c,0x26,0x46,0xe1,0x28,0x2a,0x3f,0xd4,0x39,0xf1,
  0x5e,0xfb,0x22,0xc9,0x75,0x58,0xe7,0x1f,0x3c,0xce,0x25,0xab,0xfa,0x0a,0x29,0x1f,
  0x2b,0xff,0x27,0x14,0x49,0xb2,0x0b,0xd5,0x10,0x3c,0x0e,0xe3,0x72,0x11,0x1c,0x18,
  0xf4,0x95,0x11,0xd4,0x00,0x37,0xfb,0xd0,0x13,0xee,0xd9,0x07,0x7b,0xf4,0x1b,0xe5,
  0x63,0xd6,0xf2,0x01,0x1a,0x2d,0x37,0xec,0x0e,0xe0,0x16,0x96,0x56,0xe8,0x37,0x0d,
  0x2e,0x8e,0x1b,0x1a,0xbb,0xfd,0xf7,0xe4,0x09,0x98,0xe4,0x7f,0xc4,0x57,0xda,0xee,
  0x31,0xa4,0x1e,0xd5,0x15,0x6f,0x16,0xdd,0x11,0x49,0x1f,0xd7,0xf4,0xdd,0xfe,0x06,
  0xfe,0x3e,0x00,0x92,0x4a,0xbd,0x0e,0xda,0x01,0x83,0x15,0xc7,0xbf,0x78,0x0f,0xdd,
  0xd3,0xe9,0x03,0x23,0xc0,0xf5,0x06,0xe0,0x1c,0x5b,0x01,0xcb,0x4a,0x67,0x50,0x15,
  0xf4,0x01,0x19,0x1f,0x1b,0x1d,0x2b,0xfc,0xea,0xaa,0xda,0xaf,0x34,0x44,0x3a,0x2a,
  0xee,0x5a,0xd6,0xe1,0x01,0xf7,0x25,0xe9,0xd1,0xe9,0xf7,0xa5,0x7f,0xae,0xa1,0xff,
  0x2f,0x10,0xec,0xc8,0x37,0xfb,0x13,0xe3,0xee,0x02,0x20,0xc6,0x59,0xf3,0xbf,0x35,
  0x10,0x17,0xfc,0x3e,0xf1,0x12,0xee,0x25,0x26,0x17,0x0f,0xda,0xd7,0x13,0x1f,0xd0,
  0xca,0xfe,0x07,0x32,0xd1,0xf4,0x00,0xfd,0x33,0xb8,0x21,0xfd,0x25,0x5f,0x45,0xff,
  0x31,0x59,0xd1,0xbe,0x41,0x6d,0x4d,0x0d,0x08,0xfd,0x0c,0x81,0x4f,0xa9,0xe2,0x28,
  0x21,0xe7,0xd6,0x3a,0x58,0x0a,0x1c,0x02,0xf8,0xed,0xd1,0x01,0x55,0x33,0xec,0xd0,
  0x3f,0xe0,0x1b,0x39,0xfd,0xed,0x18,0x05,0x0a,0xe9,0x2d,0x34,0xf1,0x1c,0xde,0x0b,
  0x00,0x02,0x17,0xcf,0x07,0xd9,0x1c,0xea,0xc8,0xf0,0x13,0xf8,0xb1,0xbf,0x04,0x0b,
  0xff,0xbf,0xf0,0x50,0xf5,0x09,0xf0,0xf7,0x15,0x12,0x06,0xf3,0x3b,0xe6,0x12,0x04,
  0x04,0xe7,0xe4,0x42,0xca,0x28,0x19,0x18,0x1a,0xdc,0xee,0xcf,0xce,0xf3,0x0f,0xe2,
  0x09,0xfb,0xfc,0x1a,0xd9,0x14,0xfd,0xea,0xea,0xd2,0xfa,0x7f,0xf1,0xee,0x05,0xf1,
  0x1d,0xf5,0x0d,0x3e,0xe5,0xff,0x26,0x0c,0x1b,0x17,0xfa,0xec,0x2a,0x04,0x05,0x11,
  0x18,0x1b,0xe9,0x19,0xc4,0xbb,0x41,0xe6,0xde,0xfb,0x11,0xfa,0xd6,0xac,0x01,0x17,
  0x07,0xa3,0x17,0x1c,0xad,0x4b,0x10,0xec,0xcf,0xc7,0xf9,0x2e,0x81,0x23,0x01,0x11,
  0x01,0x0b,0xee,0x15,0xd7,0xdc,0xf6,0x0b,0x27,0x0d,0x1c,0x3f,0xc7,0x3a,0x3e,0x14,
  0xfc,0xf0,0xfb,0x50,0x88,0x12,0x10,0x1b,0x0f,0xc7,0xe3,0x23,0xac,0xf2,0xeb,0x12,
  0x00,0xfc,0x09,0xe0,0x81,0xf1,0xe8,0xf9,0xfe,0xde,0x0d,0x20,0xe5,0xfb,0xd9,0x10,
  0xe7,0xff,0xf1,0xf2,0xfa,0xd2,0xf1,0xfa,0x10,0x05,0x02,0xd5,0xe7,0x25,0x0c,0xff,
  0x0f,0xe4,0xfa,0xc0,0x14,0xf9,0xf6,0x0d,0x02,0x0b,0xf3,0xeb,0xfd,0xfc,0x02,0xfa,
  0x1c,0xec,0xf0,0xec,0x0e,0x0f,0x18,0xf2,0x23,0x0f,0x0b,0xea,0xfc,0xf2,0x07,0x0b,
  0x02,0x0d,0xf0,0x01,0xf9,0x07,0xfb,0x06,0xea,0x6d,0x0c,0x30,0x94,0xf7,0xdc,0xef,
  0xff,0xfc,0x07,0x46,0xbb,0xe7,0xce,0xe7,0x39,0xad,0x16,0x08,0xd2,0x17,0xfe,0x0b,
  0xe8,0x31,0x07,0x0c,0xf7,0xd4,0x2e,0xea,0x14,0x04,0x0e,0x4e,0x00,0x1e,0x3a,0xfc,
  0x36,0xff,0x26,0xf5,0xca,0xfc,0x3d,0x03,0xf0,0x41,0xf0,0x7f,0xd4,0xd9,0x2f,0x20,
  0x0c,0x13,0xfd,0x12,0x28,0xdd,0x1f,0x1a,0xeb,0xe8,0xdb,0x09,0xe3,0xe2,0x27,0xe2,
  0x19,0x32,0x01,0xfc,0x2b,0xba,0x22,0xe2,0x1a,0xba,0x21,0xd5,0xbf,0x07,0x21,0xd3,
  0xe4,0xd1,0xd3,0x1f,0xf9,0xfe,0xdf,0xf4,0xf3,0xf0,0x04,0x46,0xf0,0xe3,0xe8,0x0a,
  0xf7,0xe7,0xf9,0x7d,0xdd,0x65,0x2a,0x24,0x19,0xdd,0xf8,0x95,0xf6,0xef,0xef,0x0f,
  0x32,0xcf,0xe6,0x29,0x91,0x30,0xe3,0x1b,0xc7,0xfe,0x21,0x7f,0xfd,0xf2,0x24,0xd0,
  0x05,0x4c,0xd5,0x6b,0xdb,0x32,0x2a,0x05,0x1d,0xf8,0xd8,0x55,0xe2,0x45,0xd0,0x18,
  0xe1,0xc4,0x0c,0x5b,0x97,0x2f,0x25,0xe8,0xe2,0x6c,0x27,0x60,0xdd,0x0e,0xf3,0x16,
  0x14,0x8b,0xdc,0xc4,0x81,0x32,0xad,0x1c,0xef,0x2f,0xdc,0x3e,0xaa,0x4e,0xe5,0x0a,
  0xc3,0xef,0x10,0xf2,0x01,0x16,0x16,0x10,0x03,0xeb,0xeb,0x0f,0xbf,0x30,0x1f,0xdb,
  0x05,0xfc,0x1e,0x38,0x50,0x3b,0x0e,0xec,0x07,0x02,0xfa,0xe0,0x30,0x41,0x45,0x11,
  0x22,0x1f,0xe2,0x9f,0x62,0xa1,0xfb,0x0e,0x01,0xc1,0xfa,0x54,0x18,0xb3,0x33,0xf7,
  0x46,0x24,0xcd,0x15,0x33,0xf3,0x1b,0xc6,0x10,0xf3,0xcc,0x7f,0x02,0x38,0x4a,0xf7,
  0xea,0xc7,0xcf,0x18,0xda,0xe3,0xea,0xd5,0x3b,0x87,0x14,0x00,0x1a,0x32,0x19,0x0f,
  0x22,0xb1,0xea,0x06,0xee,0x03,0xec,0xfa,0x3e,0xe2,0x3c,0x21,0xa8,0xcc,0x3f,0xe1,
  0x19,0xdd,0x24,0x1a,0xcd,0x31,0x1c,0x1b,0x0f,0xcf,0x14,0xe7,0x33,0x3b,0x12,0x18,
  0x24,0xc4,0x06,0xcc,0x21,0x42,0x1c,0xf7,0x23,0xbd,0x27,0xf0,0x15,0x3c,0xe0,0x0d,
  0x29,0xf2,0x15,0xdd,0x4a,0x3c,0x08,0x10,0x31,0xf3,0xed,0x81,0x0b,0xbc,0xf0,0x11,
  0x05,0xde,0xe4,0xca,0x15,0xe9,0xd3,0xdf,0xdb,0x11,0x11,0xc8,0x05,0xe0,0x0d,0xe6,
  0x11,0xf2,0x03,0x88,0xfd,0xf3,0xe8,0x0f,0x10,0xed,0xd9,0xe9,0x3e,0x0c,0x30,0x1f,
  0xfe,0x02,0x18,0x0e,0xe4,0xf7,0xfc,0xe7,0xfe,0xf8,0xf9,0x7f,0x2a,0x1c,0x23,0xdf,
  0x54,0x25,0xf4,0xeb,0x67,0x25,0x4d,0xf9,0x19,0x07,0x00,0x58,0xba,0xe6,0x0b,0xf4,
  0x0b,0xfc,0xec,0x5f,0xa5,0xbe,0x08,0xe7,0x1e,0xd6,0xf7,0xd8,0x37,0x20,0x07,0x14,
  0x24,0xc8,0xf7,0x26,0xe0,0x18,0xed,0xfd,0x13,0xf8,0xfc,0xef,0xed,0xe0,0x0a,0xf9,
  0x20,0xf8,0x11,0x0c,0x30,0x20,0x1c,0xf5,0xe5,0xc5,0xff,0x02,0xfa,0x1f,0xb7,0x13,
  0x0a,0xd2,0xde,0x81,0x2e,0x10,0xf2,0x16,0x3e,0x6e,0xea,0xbd,0x3b,0x1f,0x4a,0x15,
  0x89,0xeb,0x05,0x63,0xb9,0xf1,0xd8,0xde,0x08,0x47,0xd5,0xb9,0x27,0xd4,0x22,0x02,
  0xe1,0x4a,0xf5,0x25,0x34,0x99,0xe3,0x13,0xed,0x5b,0xf7,0x3b,0xf4,0x14,0xf5,0x1c,
  0x09,0xf5,0xf6,0xa3,0x10,0x19,0x3a,0xee,0x05,0x23,0xe4,0x12,0x0a,0xe3,0x12,0xe5,
  0xfc,0x49,0x0d,0x10,0xee,0xfe,0xed,0xe6,0xf4,0x05,0xe4,0x81,0x4f,0x0d,0x00,0xfc,
  0xe6,0x00,0xeb,0x97,0x0a,0xf1,0x23,0xfe,0x1d,0x01,0xe8,0xc7,0x3a,0x05,0x26,0xf4,
  0xfd,0xf9,0xee,0xe0,0x33,0x03,0x1c,0xfd,0x17,0x12,0xef,0x30,0x29,0x12,0x0f,0xe7,
  0x09,0x3a,0x13,0x09,0x3e,0xfb,0x11,0x00,0xf6,0x18,0x09,0xee,0xf9,0xfa,0xdf,0x01,
  0x05,0x34,0xf5,0x29,0x1e,0xea,0xfb,0x09,0x46,0xc0,0xff,0xff,0x04,0x00,0x00,0x00,
  0x40,0x00,0x00,0x00,0xbb,0x01,0x00,0x00,0x24,0x02,0x00,0x00,0xcf,0xff,0xff,0xff,
  0x78,0xfe,0xff,0xff,0xa3,0x00,0x00,0x00,0x87,0x00,0x00,0x00,0x0b,0x01,0x00,0x00,
  0xfb,0x00,0x00,0x00,0xd3,0x01,0x00,0x00,0x59,0xff,0xff,0xff,0xbc,0xff,0xff,0xff,
  0x04,0x01,0x00,0x00,0xd6,0xff,0xff,0xff,0xb5,0xff,0xff,0xff,0xee,0x01,0x00,0x00,
  0x16,0x00,0x00,0x00,0x92,0xc0,0xff,0xff,0x04,0x00,0x00,0x00,0x00,0x01,0x00,0x00,
  0x41,0xb7,0x0b,0xb2,0xde,0x23,0xb5,0xb1,0xdd,0x1a,0xf5,0x22,0x19,0x57,0x23,0xc6,
  0x32,0xfc,0x2d,0xd3,0x56,0xc3,0x95,0x7f,0xd7,0xc3,0xae,0x54,0x74,0x4d,0xa4,0x46,
  0x09,0x32,0xb9,0x42,0xe5,0xce,0x38,0x28,0xe4,0xbd,0x07,0xe9,0x89,0x43,0xe6,0x28,
  0xb4,0x0f,0xa0,0x9e,0x43,0x4b,0xa0,0xa2,0x3a,0xfc,0x45,0x2d,0x81,0x54,0xb6,0xb7,
  0xb9,0xfb,0x24,0x04,0xd2,0x81,0xef,0x0d,0xd7,0x31,0x06,0x5f,0xae,0xe5,0x2d,0x30,
  0x30,0xbf,0xbe,0x42,0xf2,0xe8,0xe4,0x1f,0x56,0xd9,0x04,0xc8,0x27,0x29,0x4e,0x38,
  0x30,0xfb,0x48,0x51,0xf7,0x38,0x21,0x42,0x14,0x1e,0x7f,0xc8,0x04,0x0b,0x1f,0x08,
  0xa4,0x63,0xd3,0x44,0x61,0x1c,0x40,0x5e,0x23,0x9d,0xf7,0xd3,0xf0,0xc5,0x2c,0x23,
  0xf2,0xe4,0xc5,0x25,0xc6,0x81,0xee,0x60,0xea,0x08,0x16,0x59,0xc7,0x1f,0x47,0x4c,
  0xc5,0xbc,0x15,0xe9,0x0c,0x35,0x41,0xc3,0xf9,0x48,0xd7,0x56,0x90,0x17,0x21,0x73,
  0x23,0x05,0xae,0xdb,0x81,0x5f,0xcb,0x28,0x24,0x9b,0x0f,0xc9,0xd0,0x42,0xf5,0xec,
  0x1b,0x11,0x56,0xbc,0x0f,0xd8,0x30,0x56,0x36,0xf1,0x1a,0x5b,0xa6,0x64,0xfc,0xd0,
  0xd6,0x43,0x3c,0x42,0x18,0x85,0x5b,0xf7,0x88,0x54,0x47,0xa8,0xdc,0x44,0x37,0x06,
  0x7f,0x4c,0x37,0xd0,0xbd,0x3c,0xd7,0xda,0x59,0x40,0x16,0xe2,0x97,0x14,0x89,0x1a,
  0x7b,0xf8,0x24,0x2e,0x76,0x3b,0xfb,0x05,0x53,0xe6,0x01,0x9f,0x5f,0xce,0xae,0xa8,
  0xa2,0x9c,0x5f,0x73,0xcb,0xb3,0x2b,0x1a,0xf2,0x30,0x78,0x11,0xee,0x61,0x7f,0x4a,
  0x9e,0xc1,0xff,0xff,0x04,0x00,0x00,0x00,0x20,0x00,0x00,0x00,0x23,0x00,0x00,0x00,
  0xcb,0xff,0xff,0xff,0x9a,0x00,0x00,0x00,0x97,0x00,0x00,0x00,0xc6,0x00,0x00,0x00,
  0xd0,0xff,0xff,0xff,0xfa,0x00,0x00,0x00,0x0a,0xff,0xff,0xff,0xca,0xc1,0xff,0xff,
  0x04,0x00,0x00,0x00,0x80,0x00,0x00,0x00,0xfc,0x1f,0x92,0x20,0x7d,0x7f,0x5f,0x87,
  0xe8,0xee,0x7f,0xb4,0x68,0xef,0xa8,0x5f,0xb8,0x37,0x15,0xee,0x01,0x66,0x81,0x32,
  0xfa,0x13,0x96,0xca,0x7f,0xa9,0x68,0x07,0x90,0x16,0xdc,0x9d,0x56,0x7f,0x1e,0x85,
  0x15,0x9f,0x52,0x5f,0xd4,0xcc,0x7f,0x9c,0x4b,0xfd,0x1f,0x7f,0xf6,0xa3,0x55,0x92,
  0x7f,0xfe,0x9c,0x38,0xb8,0x57,0x55,0xd7,0x04,0x13,0x21,0x81,0xd6,0xca,0x39,0xc9,
  0x81,0x3e,0x83,0x86,0x84,0x9c,0xcf,0xb1,0x8d,0x91,0x22,0xc9,0x04,0x4e,0x94,0x7f,
  0x77,0xa5,0xc0,0x94,0xe9,0xd5,0x7f,0x7d,0x58,0xb5,0x1a,0x96,0xbb,0xb3,0x7f,0x9a,
  0x1f,0x51,0x00,0xd8,0xbf,0xe3,0x62,0x81,0xc0,0x6b,0xb7,0x35,0x67,0x81,0x96,0xf6,
  0x31,0x13,0xe8,0x7f,0xc1,0xd0,0xca,0x3f,0x56,0xc2,0xff,0xff,0x04,0x00,0x00,0x00,
  0x40,0x00,0x00,0x00,0x95,0xff,0xff,0xff,0xf2,0xfe,0xff,0xff,0x14,0x00,0x00,0x00,
  0x54,0xff,0xff,0xff,0xc9,0x00,0x00,0x00,0x87,0xff,0xff,0xff,0xd9,0xff,0xff,0xff,
  0x3e,0x01,0x00,0x00,0xdc,0x00,0x00,0x00,0xf7,0xff,0xff,0xff,0x49,0x00,0x00,0x00,
  0xeb,0xff,0xff,0xff,0x99,0xff,0xff,0xff,0xc5,0xff,0xff,0xff,0x01,0x00,0x00,0x00,
  0x11,0x00,0x00,0x00,0xa2,0xc2,0xff,0xff,0x04,0x00,0x00,0x00,0x80,0x04,0x00,0x00,
  0xf6,0x96,0x0a,0xb7,0xbe,0xc9,0xe7,0xef,0x5b,0xc4,0x40,0x12,0x1e,0xe7,0xd5,0x3e,
  0xe4,0x20,0x79,0x12,0x37,0x27,0xf2,0xf6,0xf8,0x96,0x18,0x6f,0x37,0xbf,0xe4,0xf8,
  0x05,0x25,0x48,0x3e,0x21,0x1e,0xd5,0x7f,0xf9,0xc6,0x14,0x2d,0x16,0xd6,0xa8,0x4d,
  0x2f,0x2f,0x19,0xdf,0x3e,0x09,0xc5,0x05,0x05,0x21,0xb2,0x8e,0x12,0x24,0xdc,0x31,
  0x4a,0xc5,0x1f,0x82,0xda,0x1f,0xa3,0xd2,0xd9,0x22,0x48,0xda,0x35,0x2a,0xfb,0xe1,
  0x25,0xd6,0x14,0xaf,0xfd,0xe2,0xfc,0xf4,0x2b,0xdf,0x3c,0x17,0xe6,0x01,0xcd,0x0f,
  0x81,0xce,0x1b,0xfc,0xc9,0x1c,0xef,0xf1,0xa3,0x0b,0x0f,0xb1,0xf3,0x09,0x1b,0xdb,
  0xdb,0x45,0xd8,0xf2,0xdc,0x0e,0x03,0xe2,0xc4,0x37,0xf3,0x4d,0x30,0x23,0x36,0xf5,
  0xd8,0x4a,0xf1,0x23,0x20,0x3a,0x0f,0x90,0xe8,0x20,0x08,0x19,0x3a,0x28,0x4f,0x94,
  0x3b,0xd2,0xeb,0xec,0xf2,0x2d,0x2f,0x0f,0x5b,0x08,0xc6,0xea,0x08,0xc9,0xd5,0xfa,
  0x4c,0x11,0xb5,0x11,0xd7,0x1f,0x2e,0x01,0xee,0xf4,0xdf,0x0c,0x03,0x10,0x16,0x3a,
  0x11,0x17,0x82,0xcc,0x02,0xac,0xcc,0xf4,0x3c,0xe2,0x1a,0xe6,0x12,0x14,0x15,0x0b,
  0xba,0x4d,0xe1,0x12,0x38,0x06,0xf8,0xdb,0x81,0x19,0xf9,0x23,0x0b,0xc5,0xfd,0xda,
  0xd9,0xd2,0xaf,0xf6,0x51,0xb3,0x0c,0xe0,0x03,0x0b,0xb3,0x0e,0xe4,0x01,0xd3,0x04,
  0x22,0x1b,0xe5,0x04,0x81,0x0d,0xf4,0x1b,0xf0,0xec,0x30,0x38,0x02,0x18,0x03,0xfa,
  0x32,0x17,0xef,0xff,0x0b,0xe0,0xd1,0xff,0x48,0xe0,0xf5,0x14,0xa7,0x3b,0x1d,0xfa,
  0x2f,0xe0,0x2a,0xfa,0x07,0x10,0xdb,0xe1,0xe8,0xfd,0xa9,0xf7,0x07,0xe6,0xed,0xd8,
  0x30,0xe6,0xd1,0x09,0xb8,0x41,0x33,0x20,0x34,0x07,0x1c,0x06,0x06,0xf4,0xea,0xce,
  0x43,0x25,0x32,0x17,0xd7,0xf6,0xd0,0xda,0xc1,0xd9,0xda,0x48,0xd7,0x39,0xd0,0x26,
  0xb6,0x15,0x31,0x19,0x20,0xf7,0xb2,0xd9,0x4c,0xe6,0xb5,0x18,0x27,0x10,0xe3,0x2d,
  0xe7,0xe5,0xb7,0x08,0x07,0xeb,0x1d,0xe9,0xfb,0x00,0x30,0x23,0xf3,0xdf,0x24,0x35,
  0x7f,0xcf,0xf6,0xf7,0xdf,0x11,0xf5,0xd1,0x2c,0xb6,0x09,0x4f,0x28,0x1d,0x1d,0x6a,
  0x28,0x6d,0x0d,0x19,0x41,0xf5,0x22,0xe2,0xf4,0x34,0x7f,0x00,0xe5,0x00,0xdd,0xfd,
  0x57,0x24,0x25,0xf9,0x2c,0x01,0x08,0x10,0x3d,0xf6,0xd5,0xff,0xf3,0x0a,0x09,0xb4,
  0x24,0x04,0xca,0xac,0xcf,0xf4,0xd4,0xf2,0x53,0x0c,0xdf,0x11,0xc6,0x1b,0x0e,0xb2,
  0x24,0x14,0x7a,0xd8,0x56,0xd9,0xf3,0xda,0x00,0x12,0xa9,0x1f,0x07,0x1a,0x03,0xe9,
  0xe4,0x08,0xfc,0x34,0xfb,0x12,0x1f,0x11,0x10,0x29,0xd0,0x13,0x2b,0xf8,0xf1,0x9a,
  0x46,0x37,0xb5,0x04,0x81,0x02,0x0b,0x03,0xbd,0xe8,0x60,0x45,0xbf,0xed,0xe5,0x15,
  0xbb,0xfe,0x7d,0x1a,0x3e,0x20,0xff,0xba,0x2c,0xf0,0xdb,0xb5,0xbb,0xf3,0xe0,0xe9,
  0x3b,0xf1,0x60,0x23,0x26,0xb9,0xde,0x0b,0x52,0x02,0x31,0x15,0x17,0xfa,0x09,0xbb,
  0x3c,0xc9,0x25,0x39,0xbd,0x36,0x30,0xe2,0x4f,0xc9,0x47,0x15,0x1a,0xd4,0xdf,0x01,
  0x1f,0xf3,0xc0,0xf0,0x18,0x0a,0xed,0x18,0x10,0x07,0xeb,0x49,0xf6,0x05,0xe4,0x07,
  0x5e,0xb6,0xef,0x93,0x22,0x5f,0x79,0x3b,0x74,0x56,0xc4,0xd2,0x1d,0x4b,0x51,0x2b,
  0xc2,0x22,0xdb,0x2c,0x44,0x1b,0x34,0x27,0x4a,0xfc,0xff,0x0e,0xbd,0x09,0xc0,0x10,
  0x5e,0x9e,0xd6,0xde,0xf8,0x65,0xfe,0x53,0x58,0x03,0x2d,0xf1,0xf2,0xec,0x3e,0xf9,
  0xe0,0x1b,0xda,0x1c,0xe9,0xd2,0x28,0xb8,0x07,0x5f,0xfc,0x2d,0xbc,0x24,0x81,0x2d,
  0xe9,0xe4,0xff,0x0e,0xfd,0xf7,0xf3,0x0f,0xe9,0x16,0xf8,0x09,0x08,0xf4,0xee,0x1f,
  0xdc,0x02,0xeb,0xf9,0x08,0xfd,0xe5,0x29,0xc8,0x02,0x22,0xc4,0x02,0x00,0xf7,0x14,
  0xc2,0xf0,0x03,0xd1,0xd9,0xf0,0xfd,0x1b,0x81,0xf6,0x01,0xf0,0xc7,0x03,0xe7,0x10,
  0xaf,0xf5,0x22,0xd3,0xec,0x1c,0x07,0x38,0x98,0xfa,0x2b,0x26,0xe4,0xfa,0x10,0x07,
  0x97,0xeb,0x28,0x1c,0xf7,0x0d,0x05,0xf1,0x1d,0xed,0xbf,0xa3,0xfe,0x0b,0x1e,0xd2,
  0xf2,0x48,0xf9,0xf8,0x0e,0xdf,0x20,0xe3,0xd7,0x45,0x05,0x03,0x1a,0x26,0xd8,0xfa,
  0x13,0xf1,0x1d,0x9d,0xd6,0xeb,0x26,0x6f,0xd8,0x20,0x10,0xd9,0x2b,0x17,0x15,0x3c,
  0xe1,0x49,0x4b,0x10,0x0a,0xff,0x19,0x6e,0xc0,0x63,0xec,0xdd,0xd8,0xd5,0xfb,0xd7,
  0xd0,0x7f,0x04,0x14,0xf6,0xf1,0x0f,0x1e,0xcd,0x43,0x33,0x23,0x18,0xf2,0x12,0x3a,
  0xf0,0x18,0x3a,0xd0,0xe4,0x11,0x15,0xd7,0xee,0x2b,0x04,0x92,0xef,0xff,0x21,0xca,
  0x2e,0x16,0xbb,0xe5,0xf6,0x0e,0x52,0x1c,0xa7,0xdc,0xe5,0x3a,0x42,0x01,0x35,0xac,
  0xaa,0xff,0x32,0xc1,0x3a,0x3f,0x3c,0xe5,0xf8,0xfe,0x26,0x00,0x41,0x0d,0xfc,0xa1,
  0xdf,0xf7,0xba,0x1d,0x3f,0xf5,0x1e,0xe6,0x81,0x24,0x06,0x08,0x35,0xf5,0xec,0xf4,
  0xf2,0xe4,0x06,0xfd,0xff,0xd0,0xff,0xe8,0xc5,0x3d,0x02,0x2d,0x23,0x03,0x23,0xa7,
  0x8a,0x2c,0x18,0x60,0xfc,0x35,0xf2,0xfb,0xcd,0x60,0xeb,0x45,0x2b,0x36,0x56,0xaa,
  0x47,0x86,0x0f,0xc3,0xdf,0x1a,0x12,0x01,0xfc,0x98,0x0e,0xcf,0xfe,0x09,0x19,0x01,
  0x3d,0xb9,0x5c,0x19,0x0d,0x2c,0x09,0x60,0xde,0xfa,0xc9,0x56,0x13,0xfd,0xec,0x4d,
  0xd5,0xd5,0xea,0xd2,0x0d,0x05,0x81,0x32,0x20,0x30,0x32,0xbf,0xca,0xcb,0xdf,0xc8,
  0x55,0xf7,0x71,0xed,0x0a,0x2a,0x1d,0xbf,0x4c,0x74,0x58,0x79,0x13,0xc9,0xa9,0x4d,
  0x7b,0x3f,0x19,0xc7,0xc8,0x1d,0x0a,0xda,0x7f,0xce,0x46,0xe1,0x2b,0xbb,0x0a,0x04,
  0x7c,0xb2,0xaf,0xf5,0xdc,0xdd,0xa2,0xf3,0x45,0xa6,0x46,0xcd,0xf7,0x24,0x25,0x3d,
  0xfd,0xe2,0x22,0x1b,0x37,0xd4,0x27,0x24,0x18,0xc0,0x21,0x0d,0x2e,0xfc,0xf0,0x30,
  0x16,0xc9,0x32,0x18,0x48,0xd6,0x1e,0xfc,0xd2,0x31,0x3a,0x1b,0xf2,0x3a,0x3d,0xf5,
  0xb4,0x2e,0x0a,0x1d,0x27,0x0c,0x01,0x04,0xe2,0xdc,0x2f,0x3b,0x02,0xd6,0xe7,0xd9,
  0x00,0x15,0x2c,0x00,0xfd,0x43,0x3f,0xc0,0x0b,0xfa,0x32,0x17,0x27,0xe7,0xea,0x13,
  0x16,0x81,0x2d,0x00,0x33,0xe4,0x03,0xe5,0x4a,0x2c,0x18,0xff,0x24,0x23,0x36,0xb1,
  0x46,0xd5,0x47,0x1e,0x36,0xec,0xd9,0xa9,0xad,0xe8,0x08,0x18,0x3a,0xf3,0xe8,0xc2,
  0x17,0xe5,0xfa,0x08,0xad,0xf8,0xe5,0xf7,0x30,0x08,0x3f,0xfd,0x22,0xbb,0x15,0x17,
  0xd2,0x2c,0xfa,0x20,0x0b,0x16,0xd0,0x1f,0x27,0xd7,0x2f,0x2d,0xa4,0x14,0x1f,0x44,
  0x7b,0x1b,0x24,0x04,0x26,0xe0,0x2c,0xda,0x7f,0xb2,0xa8,0x06,0xa2,0xf7,0xd9,0xcc,
  0x2a,0xd0,0x25,0x24,0xd5,0x2f,0xd9,0x00,0x2b,0xe6,0x6e,0xd4,0xde,0xe6,0x0a,0x30,
  0x16,0xf5,0x00,0xfc,0xe6,0xc6,0x03,0x31,0xfc,0x06,0x9e,0x15,0x81,0xd0,0xd7,0x84,
  0x44,0xfa,0xc0,0xa0,0x1c,0x21,0xdd,0x10,0xd8,0xa2,0xe9,0x00,0x8b,0x20,0xce,0x9f,
  0x2c,0x09,0xfb,0x17,0x23,0x87,0xe0,0x04,0xd4,0xe8,0xa6,0xcf,0x33,0x8a,0xc4,0xa4,
  0x33,0xa5,0xd7,0xa6,0xc8,0xf8,0xd5,0xa7,0xf2,0x28,0xed,0x9d,0x32,0xac,0xb5,0xfc,
  0x9d,0x97,0x2c,0x2d,0x29,0xab,0xb0,0xde,0xa1,0xb7,0xc6,0x85,0xa1,0xb3,0xb4,0xb8,
  0x2e,0xc7,0xff,0xff,0x04,0x00,0x00,0x00,0x40,0x00,0x00,0x00,0xd7,0xfd,0xff,0xff,
  0xf3,0x00,0x00,0x00,0xd7,0xff,0xff,0xff,0x41,0x01,0x00,0x00,0x33,0x01,0x00,0x00,
  0xc4,0x00,0x00,0x00,0xa4,0xff,0xff,0xff,0x42,0x00,0x00,0x00,0xdc,0xfe,0xff,0xff,
  0xf5,0xff,0xff,0xff,0xb1,0xff,0xff,0xff,0xfd,0xfd,0xff,0xff,0x44,0xff,0xff,0xff,
  0x1d,0xff,0xff,0xff,0x8f,0x00,0x00,0x00,0xdb,0xfe,0xff,0xff,0x7a,0xc7,0xff,0xff,
  0x04,0x00,0x00,0x00,0x00,0x02,0x00,0x00,0xee,0x40,0x28,0xc8,0xcb,0x20,0x0c,0xe7,
  0x7f,0x06,0x38,0x2a,0x69,0x48,0xfe,0xf1,0x46,0xe6,0x44,0xe2,0xde,0x15,0x34,0x0f,
  0xf2,0xed,0xef,0xf1,0x2f,0x2a,0x60,0xd8,0x2e,0x0d,0xc2,0xe6,0x2f,0xc7,0xbf,0x46,
  0xa9,0xd6,0x81,0x26,0xd2,0xc9,0x5a,0xac,0xd8,0xe2,0x38,0xe1,0xe1,0x27,0x56,0x0e,
  0xb0,0xd9,0x34,0xef,0x33,0x3d,0xb6,0xe9,0x6d,0xf4,0xcd,0xc8,0x55,0x47,0xf7,0xef,
  0xa6,0xc6,0xa3,0xe4,0x81,0xf9,0xfb,0x25,0xed,0x51,0x1e,0x10,0xc6,0x09,0xb9,0xf1,
  0x10,0xcf,0x5a,0xe4,0xf5,0x68,0x20,0xd4,0xc8,0x3d,0x1c,0x17,0xf4,0xd6,0xd6,0xb5,
  0xd4,0xf6,0x30,0x30,0xfc,0x20,0xed,0x7f,0x67,0x92,0xaa,0x18,0xae,0x04,0xef,0x19,
  0x25,0x50,0xc6,0x04,0xf2,0xf2,0x02,0x03,0x2e,0xd7,0xb3,0xec,0xde,0xcf,0xdb,0x24,
  0xe7,0x00,0xe7,0x0d,0xad,0xf0,0xf4,0xd7,0x06,0xe0,0x58,0x42,0x45,0xcb,0x1d,0x31,
  0x81,0xf2,0xca,0x1e,0x26,0x22,0x2c,0xeb,0xf6,0x11,0x27,0xd4,0xee,0xf0,0x33,0x1a,
  0x46,0xd6,0x06,0xeb,0xc2,0x41,0xe6,0x7f,0xe4,0xdf,0x95,0x07,0xf5,0xb2,0xd2,0x39,
  0x1e,0xe2,0xe7,0xe1,0xfa,0x25,0x04,0xe4,0x2a,0x2a,0xea,0x06,0x3d,0x62,0x56,0x0f,
  0xd5,0xbc,0x37,0x00,0xbb,0x01,0x04,0xcb,0x0a,0x7f,0x37,0x49,0x28,0x40,0xd8,0xbf,
  0x47,0x20,0x77,0x1d,0xe3,0xba,0xe1,0xce,0xc1,0x55,0xb9,0xc5,0xdb,0x60,0x1f,0x2d,
  0xf4,0x0a,0x03,0xe7,0xf1,0xfe,0x16,0x25,0x0f,0xd5,0x12,0x7f,0x2a,0x6c,0xf2,0xd0,
  0xd2,0x2f,0xcb,0xd1,0x23,0x45,0x56,0xdd,0x1f,0xca,0xeb,0x48,0xdb,0xfc,0xd3,0x30,
  0x7f,0xda,0x36,0x4b,0x37,0x33,0x10,0x2d,0xc7,0xe8,0x34,0x09,0x57,0x2c,0xb0,0x21,
  0x83,0x08,0x9b,0xd7,0xd2,0xe7,0x47,0x1c,0x24,0xff,0xe6,0xc9,0x11,0xfa,0xc8,0x16,
  0xbf,0xd2,0xd3,0x5a,0x82,0xf9,0xe1,0xfc,0xf1,0xaf,0x22,0x78,0x4a,0x60,0x56,0x23,
  0xd6,0x2c,0x0a,0xb8,0x3a,0xdd,0x81,0xef,0xec,0x2c,0x01,0xde,0x03,0x24,0x3c,0xc2,
  0x15,0xe3,0xec,0xd9,0xc5,0xd4,0xe7,0x81,0x44,0x16,0x19,0x0a,0x12,0xdb,0x08,0xe0,
  0x65,0xdc,0x3a,0x27,0x28,0x1d,0xe4,0x2b,0xc4,0xf3,0xc4,0x41,0xe8,0x0d,0x19,0xec,
  0x42,0x1d,0xcb,0xf4,0x44,0xd5,0x7f,0xf5,0xbe,0x00,0x13,0x3e,0x38,0xf3,0x0a,0xab,
  0x67,0x29,0xee,0xb5,0x2c,0x37,0xff,0x3d,0x19,0xe1,0x15,0x44,0x19,0x1d,0x1e,0xe1,
  0x90,0x41,0x46,0x77,0x24,0xcb,0x5c,0xc8,0x38,0xc4,0x35,0x54,0x3c,0xc6,0x2e,0x7f,
  0x64,0xf2,0xeb,0x20,0xb9,0xe5,0xf7,0x2a,0x61,0x4f,0x2a,0x10,0xd3,0x09,0xca,0x15,
  0x3a,0x0f,0x7f,0xc7,0x3c,0x4f,0xaa,0x37,0xbc,0x33,0xd8,0x9d,0x0e,0x4a,0x35,0x44,
  0xeb,0xcc,0x03,0x41,0x3b,0xb4,0xe0,0x4d,0x36,0xc2,0x92,0x0e,0xf2,0xd2,0x50,0x37,
  0x7f,0xf6,0xad,0x40,0x60,0x3c,0x42,0x43,0xd0,0xda,0xdc,0xe8,0xcb,0x31,0xa3,0x11,
  0xde,0x50,0xd1,0xc5,0x2c,0x53,0xae,0x2d,0x4b,0x21,0x7f,0x2b,0xfd,0x34,0x03,0xa9,
  0x53,0xbd,0x37,0x16,0x5a,0x2c,0xd9,0x1a,0xbf,0xde,0xc0,0xaf,0x10,0xbe,0xdf,0x24,
  0xe8,0x6f,0x2c,0x67,0xa9,0x47,0xb5,0x21,0x86,0xc9,0xff,0xff,0x04,0x00,0x00,0x00,
  0x40,0x00,0x00,0x00,0xb7,0xff,0xff,0xff,0x0c,0x00,0x00,0x00,0xb4,0xff,0xff,0xff,
  0xb6,0xff,0xff,0xff,0x3f,0x00,0x00,0x00,0xe7,0x00,0x00,0x00,0xc0,0xff,0xff,0xff,
  0x69,0x00,0x00,0x00,0x85,0x00,0x00,0x00,0xdb,0x00,0x00,0x00,0xd1,0xff,0xff,0xff,
  0x48,0x00,0x00,0x00,0x7b,0x00,0x00,0x00,0x78,0xff,0xff,0xff,0x40,0xff,0xff,0xff,
  0xe1,0xff,0xff,0xff,0xd2,0xc9,0xff,0xff,0x04,0x00,0x00,0x00,0x00,0x02,0x00,0x00,
  0x28,0xfc,0x58,0xe9,0x17,0xe3,0xc1,0x29,0x21,0xd8,0xd3,0x79,0x81,0x8f,0xda,0xe6,
  0xdd,0x77,0xe7,0x58,0x22,0x54,0xe9,0xad,0x81,0x0f,0x3d,0x2d,0x7b,0x6b,0x20,0x3a,
  0xbe,0xf5,0x68,0xc1,0x73,0x61,0xd3,0xc2,0xef,0xb7,0xe1,0xaf,0x99,0x1a,0x2e,0x81,
  0xf4,0xe8,0xfb,0x3e,0x14,0xf5,0x20,0x7f,0x04,0x3f,0x03,0x4c,0xd3,0x92,0xc9,0xb5,
  0x81,0x46,0xae,0x17,0x18,0x0b,0xbd,0xfd,0x8c,0x40,0x4e,0x13,0x54,0x34,0x3d,0xea,
  0xe8,0x69,0x76,0xab,0x9f,0x10,0x7f,0x31,0x49,0xce,0xcb,0x95,0x93,0x47,0x31,0x91,
  0x7f,0xcb,0x04,0x7c,0x41,0x08,0xb7,0xf2,0x00,0xe1,0x01,0xde,0xca,0xac,0xf0,0xab,
  0xfd,0x81,0xb4,0x9c,0xc0,0x09,0x67,0xc3,0x6b,0xe6,0x17,0x0a,0x13,0xea,0xf3,0x1c,
  0xb4,0x1e,0x40,0x8d,0x7f,0x01,0x3b,0xda,0xe4,0xd4,0x54,0xf0,0xee,0xb6,0xd9,0x36,
  0x3f,0x19,0xd9,0xfe,0x3e,0xd2,0xda,0x4e,0x0f,0x57,0x13,0x6e,0x8c,0x3d,0x90,0x81,
  0x16,0xd4,0x64,0x3e,0xc7,0xb2,0x38,0x11,0xd7,0x55,0xe7,0x2a,0x1e,0xde,0x81,0x16,
  0xc0,0x0b,0x5e,0x2b,0xb9,0x32,0x46,0x1b,0x81,0xe9,0xc1,0x4d,0x52,0x17,0xa1,0x0c,
  0xf9,0x2f,0x7f,0xca,0x25,0x22,0xb6,0x20,0xc3,0x21,0x16,0x1c,0x8c,0x3f,0x1b,0x97,
  0xca,0x96,0xe7,0x22,0xee,0x07,0x3f,0x7f,0x0c,0xce,0x45,0x2a,0x29,0x98,0x8a,0xca,
  0xfa,0x20,0x47,0x0d,0x0f,0x59,0xcd,0x1a,0x1f,0xed,0xee,0xed,0xd3,0x81,0x30,0x27,
  0x3c,0x78,0xcc,0x0c,0xdb,0x0f,0xb8,0x95,0xf1,0xf7,0x1d,0xbf,0x7f,0x18,0x20,0x61,
  0xe4,0xb3,0xf7,0x7f,0x31,0x06,0x25,0x9f,0xbc,0x1f,0xd7,0xf6,0x15,0x6f,0xb1,0x55,
  0x8b,0x1e,0xb5,0x0d,0x57,0x4d,0x81,0xa3,0xd6,0x6f,0xf6,0xde,0x37,0xbd,0x1e,0xaa,
  0xa5,0xf9,0x0f,0x7f,0xa1,0xdd,0x34,0x21,0x2c,0xbb,0x4b,0xde,0x0e,0x3d,0xbc,0x02,
  0x4e,0x33,0x1b,0x26,0xcf,0x47,0xf4,0xca,0x67,0x4d,0x32,0xea,0xac,0x06,0x63,0x7f,
  0xb4,0x5d,0xb8,0x18,0xcb,0xb6,0xbc,0x31,0x1c,0x7f,0x5d,0xda,0xf9,0x56,0x5c,0xcf,
  0x95,0xc5,0x0b,0x11,0x28,0x25,0x1a,0xa1,0x46,0xf6,0x81,0xfb,0x46,0xe2,0x20,0xfd,
  0x70,0x3f,0x05,0xb5,0x3b,0xfc,0xeb,0x7f,0x2a,0x5a,0x69,0x3a,0x14,0x85,0xdf,0xee,
  0xe9,0xd6,0xa6,0xf9,0x87,0xc3,0x1c,0x31,0x81,0xc9,0x13,0xef,0x10,0x38,0xf9,0x70,
  0xf4,0xf5,0x67,0x81,0x25,0x05,0xf6,0x18,0xbd,0x69,0x00,0xea,0xd3,0xe2,0x15,0x94,
  0xa5,0xd7,0xee,0x6c,0x04,0x30,0x36,0xa2,0xa1,0x81,0x22,0x6a,0xf7,0xcc,0x8e,0xf0,
  0xbe,0x03,0x6a,0x63,0xef,0x47,0xc9,0x73,0xe9,0xfb,0x13,0xae,0x81,0x55,0x67,0x3b,
  0x71,0x25,0x16,0x81,0x4b,0xda,0x3a,0xcf,0x40,0x28,0x17,0xad,0x02,0xe0,0x23,0x99,
  0x08,0x21,0x28,0xa7,0xdc,0x81,0x35,0xd9,0xcd,0x19,0x2d,0xf0,0xea,0x1d,0xcf,0x11,
  0xb6,0x37,0x3a,0x1f,0x49,0xbd,0xfe,0x86,0xf5,0xbf,0xd1,0x81,0x23,0x1c,0x1c,0xf1,
  0xe0,0xed,0x95,0x7f,0xca,0x0b,0xaa,0xc5,0x6d,0xfb,0xda,0xdf,0x6b,0xec,0xd3,0xb9,
  0x21,0xce,0x42,0x14,0xc7,0xe8,0x00,0xe9,0x7f,0xc0,0x34,0x07,0xe1,0xf4,0xf2,0xe7,
  0xde,0xcb,0xff,0xff,0x04,0x00,0x00,0x00,0x80,0x00,0x00,0x00,0xfa,0xff,0xff,0xff,
  0xe2,0xff,0xff,0xff,0x31,0x01,0x00,0x00,0xa9,0x00,0x00,0x00,0x6b,0xff,0xff,0xff,
  0xa9,0x00,0x00,0x00,0x73,0x01,0x00,0x00,0xd6,0xff,0xff,0xff,0xda,0xfe,0xff,0xff,
  0x5b,0x00,0x00,0x00,0x5f,0x00,0x00,0x00,0x3c,0x00,0x00,0x00,0xd1,0x00,0x00,0x00,
  0x7b,0x01,0x00,0x00,0x91,0x00,0x00,0x00,0xdf,0xfe,0xff,0xff,0xab,0xff,0xff,0xff,
  0xeb,0x00,0x00,0x00,0x20,0x00,0x00,0x00,0x2e,0xff,0xff,0xff,0x35,0x01,0x00,0x00,
  0x28,0x00,0x00,0x00,0x95,0xff,0xff,0xff,0x07,0x00,0x00,0x00,0x86,0xff,0xff,0xff,
  0xbe,0x01,0x00,0x00,0x4a,0xff,0xff,0xff,0x30,0xff,0xff,0xff,0x9d,0x00,0x00,0x00,
  0x77,0x00,0x00,0x00,0x60,0x00,0x00,0x00,0xa0,0xff,0xff,0xff,0x6a,0xcc,0xff,0xff,
  0x04,0x00,0x00,0x00,0x00,0x12,0x00,0x00,0x1c,0xfc,0x0a,0x16,0x04,0xef,0x0c,0x15,
  0xf2,0x19,0xec,0xe5,0xf3,0x0d,0x02,0x0c,0x14,0xff,0x08,0x7f,0xe9,0xfe,0x04,0x2c,
  0xfd,0x06,0x07,0xfe,0x2a,0x10,0xfb,0x17,0x02,0xf8,0x17,0x23,0xe5,0x0a,0xf2,0xeb,
  0xfd,0xc6,0x18,0xe6,0xce,0x0c,0x20,0x0b,0x18,0x1a,0x04,0x04,0x28,0x38,0x09,0xfe,
  0x2b,0xec,0xe1,0xfd,0xeb,0x01,0x0c,0x20,0x24,0x15,0xec,0x1d,0xff,0x0b,0x08,0xf1,
  0xdd,0xdd,0xfa,0xe7,0xde,0x03,0xfb,0x0a,0xf3,0xd3,0x03,0xa7,0xb3,0x36,0x1d,0xfe,
  0xc6,0xd4,0x08,0xe8,0x8e,0x11,0x09,0xd9,0x17,0xe6,0xea,0xf1,0xd6,0x11,0x11,0xe9,
  0x09,0xe7,0xf6,0xd2,0xe7,0x1e,0x1c,0xf9,0x27,0x00,0x0b,0xf6,0xee,0x57,0xfd,0x01,
  0x0d,0xea,0xf4,0xb5,0xc4,0x2e,0xf1,0xda,0x13,0x03,0x0d,0xef,0xf6,0x30,0x23,0x4b,
  0x13,0x38,0xfa,0x33,0xdf,0x0f,0x12,0x0c,0x1a,0x28,0xee,0x23,0x39,0x1e,0xf2,0xef,
  0x1b,0x0c,0xfa,0x0b,0x26,0x14,0xff,0xfe,0x07,0xf0,0xe8,0xf0,0xfb,0xeb,0xe0,0x14,
  0xf9,0xe0,0xfa,0x0f,0xe7,0x1e,0xdd,0xd2,0xf7,0xe8,0xf4,0xf9,0xf6,0xfb,0xfc,0x09,
  0x16,0x0b,0x0f,0x4a,0xec,0x1d,0xf4,0xdd,0x07,0x04,0x04,0xdc,0x1d,0x0b,0xec,0x0e,
  0x28,0xea,0xf5,0x03,0xfe,0x08,0xf6,0x02,0xf1,0xea,0xf4,0x21,0xf9,0xdc,0xfa,0x0b,
  0x13,0x0e,0xee,0xed,0xee,0x16,0xe9,0xf4,0x08,0x1f,0x1a,0xfc,0x4d,0xd8,0x1d,0x10,
  0x37,0x33,0x17,0x22,0x58,0x0c,0x1d,0x19,0x13,0xfc,0xfb,0xf6,0x04,0xf0,0xfe,0x23,
  0x08,0xf8,0x27,0xef,0xfc,0x17,0x04,0x03,0x03,0x0a,0xfd,0xf6,0xf6,0xe1,0x0a,0xfe,
  0x0a,0xf7,0xf0,0xf3,0x09,0x29,0x17,0x0a,0x18,0x1c,0x05,0x10,0x2f,0xf5,0xf0,0x05,
  0x11,0x0f,0x19,0x19,0x7f,0xea,0xfa,0x0f,0xf1,0x16,0xe9,0x14,0x06,0xd9,0x0e,0x0e,
  0x26,0x00,0xfb,0x06,0x12,0x13,0x03,0xff,0x23,0x0e,0x00,0x39,0xe4,0x60,0x2a,0x06,
  0xf6,0xea,0x10,0x6a,0x05,0x03,0x1a,0x09,0xf0,0x10,0xf4,0x0e,0x07,0x20,0x10,0xee,
  0xfa,0xf8,0xfe,0x1d,0x05,0xe0,0x0e,0xec,0x07,0xec,0xce,0x0c,0xc9,0xaa,0x00,0x20,
  0x00,0xea,0x35,0xe8,0xcf,0xfc,0x0b,0xfa,0x2d,0x0e,0xeb,0xf9,0xf2,0xc2,0xfe,0x58,
  0x2b,0x0f,0x01,0x1b,0xfa,0xfc,0xfc,0xf4,0x08,0xf2,0xe4,0xfa,0x3f,0xc7,0xd0,0x2b,
  0x18,0xf0,0x1c,0x1d,0xef,0xd5,0xfa,0xcc,0xe0,0xda,0x81,0xbb,0xdf,0xb0,0xad,0xfe,
  0xc0,0xe5,0xd0,0xda,0xcd,0xed,0xd3,0xce,0x29,0x16,0xb2,0xb8,0x32,0x3a,0xff,0x2c,
  0x4c,0x34,0xdb,0xfe,0xfe,0x17,0x04,0xcc,0xff,0xf1,0xef,0xa4,0x3e,0x16,0xd6,0xd2,
  0x26,0xff,0xee,0x1b,0x1f,0x01,0xfc,0x05,0x1c,0x39,0x16,0x28,0x1b,0xcb,0x2e,0x0c,
  0xed,0x4c,0xfd,0xd2,0x0c,0xec,0xf0,0x05,0xff,0x34,0x24,0x2e,0xd2,0xf2,0x3a,0x0a,
  0x0b,0x02,0x27,0x2c,0xda,0xf4,0x0d,0x0b,0xfd,0x13,0x08,0x07,0x40,0xe1,0xdf,0xf1,
  0x18,0x84,0x40,0x49,0xfd,0xef,0xdf,0x0b,0xd3,0x3a,0x00,0xab,0x02,0xe6,0xe2,0xf2,
  0xd4,0x23,0xf9,0xb4,0xf7,0xf8,0xd1,0xd6,0xe8,0x2e,0x2d,0xa5,0xfe,0xd8,0x0a,0xf6,
  0xfe,0x0c,0x2a,0x1b,0xf5,0x07,0xf6,0xf1,0xfe,0xef,0xd4,0x02,0x24,0x30,0xdc,0xaa,
  0x7f,0xfa,0x99,0x32,0x78,0x44,0x37,0xf5,0xf5,0x01,0xad,0xab,0x2d,0xad,0xb5,0x29,
  0xeb,0x5a,0xe9,0xc0,0x10,0xf7,0xba,0xf1,0xad,0xf3,0xd8,0xf8,0xf5,0xb3,0x0b,0xb1,
  0x06,0x33,0x83,0x56,0x2a,0x1f,0x0f,0x2d,0xbd,0xd7,0xd4,0xf8,0xe5,0x13,0xed,0xb1,
  0x3c,0xc4,0x9a,0x01,0x08,0x1d,0xfe,0xf9,0x2c,0xb7,0xff,0xcf,0xe5,0x27,0x18,0x1a,
  0xe4,0xf1,0xf8,0xa8,0xc8,0xc4,0xd2,0xd3,0xbf,0xef,0xd6,0x11,0xbd,0xc6,0xa7,0x81,
  0xfb,0xc1,0xfc,0xfc,0x95,0xad,0xbe,0xe3,0xce,0x11,0xf8,0xb2,0x18,0xfc,0xee,0xab,
  0x3f,0xd2,0x9f,0x00,0xdd,0xce,0xaa,0x9a,0x0b,0xe1,0xed,0x01,0xc2,0xbc,0xf1,0x15,
  0xb2,0x21,0xbd,0x93,0x09,0xce,0x9c,0xb1,0x02,0xb6,0xfd,0x4c,0xeb,0x49,0x30,0x5f,
  0xdd,0xf3,0xc8,0x19,0xf5,0x0f,0xd0,0xcf,0xf6,0x04,0x15,0xd7,0xe0,0x25,0xe5,0x3d,
  0xba,0xba,0xd3,0x37,0x29,0xd0,0x93,0xdf,0x06,0x09,0x3f,0xd9,0xa8,0xc1,0xfb,0xfb,
  0xc5,0x9d,0xcc,0xe4,0xb5,0x07,0x24,0xf7,0xc2,0x9c,0xa3,0x29,0xd8,0x12,0x17,0x2c,
  0x4c,0x04,0x06,0x54,0xf5,0xf4,0xd2,0xe3,0xd4,0x5a,0xd1,0xbd,0x36,0xa7,0xf7,0xf2,
  0x04,0x4d,0x1a,0x77,0x4c,0xbf,0x26,0x06,0x1e,0xc8,0xd0,0x35,0x1c,0x26,0xe7,0x06,
  0x27,0xff,0x0f,0x3f,0xdf,0xd3,0xde,0xc1,0x15,0xf8,0xfa,0xdc,0x16,0xfe,0xf3,0x2d,
  0xe8,0x0a,0xfb,0x33,0xa6,0xfd,0xdb,0x8d,0x0b,0xb9,0xe9,0xa2,0xe2,0xe2,0xce,0x08,
  0x9d,0xbf,0x33,0xf2,0xc9,0xc1,0xa1,0xc3,0x10,0x0b,0xfd,0x0c,0x00,0x86,0x0b,0x46,
  0x48,0x36,0x08,0x22,0x26,0xf4,0xfb,0xf4,0x21,0x16,0x1d,0x5a,0xce,0xbc,0x33,0x2f,
  0xad,0x02,0x33,0x32,0x68,0x12,0xc5,0xeb,0x14,0xe2,0xde,0x65,0xe2,0x97,0x18,0xe0,
  0x8a,0x85,0x1c,0xc0,0x60,0x01,0xc1,0x0a,0x03,0x30,0x27,0x03,0x36,0xfc,0x0a,0x10,
  0xe4,0x01,0xff,0x0c,0x1c,0xeb,0x17,0xfa,0x10,0x11,0x0b,0x04,0xee,0x08,0x27,0xe6,
  0xc9,0xe9,0x09,0x06,0x0d,0xea,0xe5,0x1d,0xdb,0xca,0xfe,0x0b,0xbd,0x2e,0xf6,0xc5,
  0xc1,0xa6,0xf6,0x81,0x13,0x1c,0xec,0xfe,0x08,0x1b,0x01,0xe6,0x0f,0x22,0x06,0x1f,
  0x01,0x2f,0xe0,0x0b,0xec,0x06,0x0b,0x0a,0xee,0x2f,0x2c,0x7f,0xee,0xf9,0x21,0x16,
  0xce,0x08,0xf3,0x09,0xec,0x09,0x04,0x21,0xf5,0x19,0x35,0x46,0xea,0x37,0x05,0x04,
  0xe9,0x04,0x0d,0x38,0xba,0xdb,0x09,0x27,0xdf,0x08,0xe4,0x2e,0xf0,0x47,0xee,0xde,
  0x1b,0xff,0xe6,0xf3,0xde,0x01,0x02,0x0e,0xf3,0xe5,0x15,0x2a,0xe3,0x1d,0xeb,0x0b,
  0x05,0x01,0xe6,0x19,0x06,0x0d,0x06,0x05,0xf2,0xee,0xfd,0x13,0x0b,0x29,0xf3,0x09,
  0x51,0xf0,0x06,0x13,0xe6,0xf8,0xdf,0x05,0x0d,0x17,0xea,0xd6,0x13,0xef,0x0a,0x19,
  0x3d,0x12,0xee,0xd7,0xd9,0x00,0xea,0x06,0x10,0xf4,0xf7,0xbf,0x02,0x12,0x07,0x26,
  0xf7,0x1a,0xec,0xdf,0xed,0x21,0xe1,0x06,0x3f,0xea,0xdb,0xe7,0xdb,0xfa,0xf1,0x2d,
  0x1f,0x13,0xdd,0xc6,0xce,0x1d,0xdc,0xf3,0x38,0x1c,0x28,0x55,0xee,0x37,0xec,0x59,
  0xe9,0x28,0xfe,0xff,0xec,0xed,0xe6,0x17,0x04,0x0c,0xfa,0xe7,0x16,0x0f,0xd6,0x23,
  0xff,0x2f,0x34,0xf0,0x12,0x0f,0xd9,0xf4,0xf2,0xf1,0x1e,0x6a,0xee,0x20,0x36,0x29,
  0x27,0x34,0x10,0x12,0xcd,0x12,0x2a,0x2b,0xef,0xcd,0x10,0x0b,0x21,0x7f,0xf1,0xf6,
  0xd9,0xd8,0xb6,0x02,0xf1,0xff,0xf6,0xe3,0xc9,0x01,0xf1,0x2f,0xfb,0x45,0xec,0xdc,
  0x04,0xed,0xb9,0xee,0xd9,0xf8,0x04,0x04,0xdb,0x05,0x0c,0x08,0xb2,0xfa,0x32,0xed,
  0xe1,0x32,0x1d,0xcd,0x10,0x09,0x13,0x4c,0xfe,0xea,0xfc,0x57,0xbf,0xd1,0x2f,0x07,
  0xf1,0xff,0xf6,0xf8,0xdc,0x18,0xf9,0x07,0x26,0xf4,0x1f,0x1d,0xdd,0x41,0x19,0x3b,
  0x03,0xdf,0xfd,0xa6,0xc7,0x0f,0x15,0x23,0x0a,0x09,0x20,0xef,0x0d,0xe6,0x21,0x10,
  0x13,0x0f,0xfd,0xf1,0x0d,0xf7,0x11,0x30,0x18,0x06,0x03,0x99,0xda,0xe7,0x01,0xfe,
  0xce,0x07,0xfa,0x25,0xdf,0xaa,0x13,0x27,0x24,0x1f,0x01,0x2f,0xf6,0xad,0x0b,0xd5,
  0x84,0xff,0x30,0xbb,0x43,0x03,0xca,0x10,0x1c,0x07,0x08,0x56,0x18,0xd0,0x07,0x03,
  0xfe,0xf7,0x0d,0xac,0x1d,0x11,0xf8,0x16,0x14,0xfb,0x21,0xa5,0xf4,0xf6,0x03,0x17,
  0x99,0xf7,0x29,0x51,0xf8,0xe7,0x0c,0x23,0x0d,0x12,0x0e,0xfc,0x28,0x11,0xf3,0xc0,
  0xa6,0x9d,0x06,0xd6,0x4b,0xfa,0x10,0x39,0xb7,0xbd,0x01,0xff,0xf2,0x01,0xef,0x81,
  0xb1,0xab,0xcc,0xd1,0x1e,0x09,0xc9,0xf9,0xf9,0x2b,0x13,0xdb,0x35,0x4a,0x0d,0xf6,
  0xf4,0x13,0x16,0x4b,0x11,0x28,0xf0,0x3e,0xea,0xed,0x02,0xe2,0x11,0x4a,0x1e,0xd8,
  0x13,0xcc,0xcb,0xa1,0xf2,0x49,0x28,0x1a,0xc8,0xce,0xcd,0x28,0x13,0x6f,0x90,0xec,
  0x25,0xe7,0x95,0xc5,0x51,0xe5,0xfa,0xe2,0x01,0xe6,0xd3,0x06,0xf9,0x21,0xed,0xed,
  0xd9,0xf9,0xf5,0x0c,0x1d,0xdf,0xd7,0xef,0x04,0x07,0x15,0x29,0xea,0x32,0x19,0x06,
  0xd9,0x1d,0x02,0xf7,0x21,0x18,0x00,0xfa,0x02,0x1a,0x15,0x20,0x0b,0xd1,0x14,0xea,
  0x2d,0xee,0x20,0x25,0x29,0x01,0x18,0x15,0x06,0xd5,0x08,0x15,0xf6,0x15,0xfb,0xf9,
  0x0f,0xe9,0x07,0x15,0x1c,0x08,0x03,0xe9,0x0f,0xdf,0xf9,0x05,0xf5,0x14,0x1c,0xf8,
  0x08,0x0d,0xfa,0xff,0x27,0x06,0x0a,0x1d,0x0f,0x0b,0xf6,0xfb,0x10,0xbc,0xe8,0xf1,
  0x2a,0xf9,0x18,0xe4,0x23,0x08,0xf9,0x04,0x11,0xed,0xf9,0xdb,0xf5,0xf5,0xf0,0x27,
  0xf8,0xe1,0x11,0x32,0xd8,0xff,0xea,0xf2,0xf3,0xe4,0xf0,0x40,0xf1,0x11,0xfe,0xf5,
  0xc5,0xdb,0x0b,0xd7,0x0f,0x18,0x10,0x12,0xd7,0xde,0x18,0x1c,0xe6,0x4e,0xd3,0x04,
  0x81,0x92,0xe9,0xe3,0xda,0xcd,0xfb,0xda,0xf9,0x10,0x29,0x08,0x1e,0x0e,0x15,0x0d,
  0xca,0x2a,0x31,0x6b,0x2a,0xc2,0xe7,0x10,0x02,0x17,0x35,0x29,0x04,0x0b,0x30,0xe5,
  0xdc,0xff,0x12,0xf5,0xe8,0xf9,0x14,0x08,0xff,0x14,0x2b,0xf6,0x16,0x2d,0x0d,0x17,
  0x55,0x24,0x15,0x53,0xe8,0xed,0x13,0xe7,0x3c,0x28,0x07,0xe9,0xe8,0x22,0xde,0x3c,
  0x26,0x20,0x3a,0x57,0xd6,0xe8,0x1a,0xd9,0xff,0xee,0xfc,0xf5,0x1b,0xea,0xec,0x4c,
  0x2a,0x0c,0x14,0x24,0xe1,0xee,0x09,0xc3,0x01,0x04,0xc1,0xe5,0x46,0xe0,0x81,0x0e,
  0x39,0x3c,0xc4,0x20,0xcf,0xff,0xed,0xbe,0xdd,0xff,0xe9,0xd4,0x17,0x6b,0xdb,0x0b,
  0xfd,0x06,0x0a,0x3c,0xdf,0xf8,0x18,0xee,0xda,0x12,0xce,0xf3,0x13,0x0c,0xcd,0x16,
  0x1a,0x20,0xe1,0x3c,0xe1,0xee,0xe5,0x8d,0xfb,0xfc,0x9c,0xab,0x22,0x05,0x81,0xd6,
  0x58,0x20,0xb0,0x6b,0x24,0xf1,0xeb,0xa9,0x04,0xbb,0xbb,0x28,0xff,0x00,0xdc,0x11,
  0x35,0x0f,0x9b,0x24,0x03,0xf6,0xdc,0xc4,0x21,0xe2,0xdb,0x1c,0x05,0x47,0xca,0x29,
  0xea,0xe0,0xfa,0x2c,0xe2,0xaa,0x0d,0xad,0x03,0xd1,0xe3,0xdd,0x33,0x38,0xd6,0x0b,
  0x02,0x13,0x09,0x3e,0x03,0x01,0xb1,0xaa,0xfd,0xd6,0x0a,0xeb,0xfb,0x36,0xff,0x09,
  0x42,0x09,0xd0,0x3f,0xed,0xe3,0x24,0xcd,0x06,0xe5,0x03,0x81,0x09,0x3a,0xec,0x28,
  0x3d,0x0e,0xe5,0x37,0xd1,0xe9,0x0c,0xc3,0x02,0x09,0x04,0x1c,0x25,0x1f,0x1c,0x27,
  0x02,0x3f,0x18,0x2b,0xf3,0x06,0x0c,0xf2,0xec,0x41,0x1b,0x9f,0x05,0x34,0x03,0xfd,
  0xf5,0x19,0x32,0x4a,0x03,0xc6,0x1f,0x03,0xe7,0x31,0x0a,0x86,0x15,0x23,0x05,0xe3,
  0x12,0x15,0x11,0x23,0x12,0x06,0xfd,0xfe,0x0d,0xfd,0xef,0x54,0xf8,0x11,0x14,0xf6,
  0xc5,0x18,0x27,0x05,0x3d,0x16,0x01,0x00,0xfe,0x33,0xf1,0xfc,0x05,0x22,0xf7,0x02,
  0x07,0x1a,0xc8,0xe6,0x11,0x08,0x1d,0xf5,0xf4,0x19,0x2a,0xdf,0x0c,0xe3,0x15,0x23,
  0x17,0x23,0x01,0x1f,0xe4,0xfd,0x15,0xf3,0x11,0x02,0x0d,0x15,0x10,0xe1,0x13,0xfd,
  0xf6,0xcf,0x1a,0xe3,0xce,0x00,0x03,0x01,0x06,0x22,0xec,0x03,0x04,0x62,0xdc,0x13,
  0x1b,0x21,0xcb,0x06,0x16,0x12,0x18,0xe5,0xc8,0x25,0x28,0x12,0xe2,0x47,0x0c,0xdf,
  0xeb,0x19,0xd2,0x05,0x1d,0xdc,0x04,0xfd,0xfd,0xf9,0x12,0x20,0xb2,0x31,0x0c,0xdd,
  0xbb,0xc9,0x18,0xec,0xe5,0x1a,0x0d,0x23,0x07,0x0c,0x0c,0x01,0xf4,0xbf,0xf1,0x07,
  0xd0,0xf5,0x46,0x81,0xec,0x10,0xdf,0xf0,0xe8,0x21,0xf0,0xeb,0xf8,0x14,0xeb,0x05,
  0xee,0x24,0x05,0xff,0x46,0xff,0xef,0x17,0x25,0xfa,0x11,0x13,0xde,0x2b,0x17,0x20,
  0x04,0xe8,0xec,0xc2,0xd7,0x01,0x01,0xea,0x20,0xf4,0xcc,0x3f,0xef,0xb9,0x1b,0x11,
  0x0b,0x20,0xf7,0x1d,0x18,0xfa,0x05,0x04,0x29,0xf4,0xfa,0x43,0x04,0x0b,0x06,0xf8,
  0x1c,0xea,0x29,0xff,0x06,0x0a,0xfc,0x06,0xeb,0x09,0xff,0xd9,0x0a,0xd6,0xb2,0xfa,
  0x34,0xf2,0xf5,0x14,0xfa,0xcf,0x0a,0xe7,0xfa,0xd9,0xa4,0x01,0x24,0xe9,0xb7,0x1d,
  0x35,0x01,0xe9,0x12,0x2b,0xfd,0xf8,0xd4,0xec,0xf9,0xef,0x21,0x0a,0x13,0xd1,0xea,
  0x2a,0x05,0xea,0x15,0x21,0x0e,0xec,0x0c,0xcf,0xe2,0xc2,0x0d,0x19,0x3d,0xba,0x0d,
  0x3c,0x03,0xa1,0x2a,0x03,0xd0,0x13,0xe3,0xfb,0xdd,0xda,0x38,0xd9,0x72,0x81,0xc4,
  0xc3,0xea,0xbf,0xa3,0x09,0xf2,0xcc,0xc2,0x08,0xf8,0xde,0x0e,0x26,0x59,0xd7,0xe2,
  0x2e,0x1e,0xb1,0xf0,0x1b,0x09,0x23,0xef,0xeb,0xff,0xd8,0xf7,0x1d,0x2e,0xf1,0xf9,
  0x32,0x0b,0xd0,0x31,0x10,0xea,0x0e,0x08,0xfa,0xd9,0xf4,0x17,0xc1,0xf6,0xf9,0xd4,
  0xa1,0xe5,0x23,0x12,0xe6,0x02,0xa8,0x16,0x10,0x01,0x02,0xe9,0x09,0x31,0xf3,0xfd,
  0xde,0x0f,0x04,0xe5,0x0a,0x15,0xfb,0xf9,0xd3,0x1c,0x0b,0xba,0x4d,0xb8,0x00,0xa5,
  0x17,0xd7,0xe5,0xb6,0x09,0x31,0xf1,0xe1,0x01,0x1d,0x33,0xa6,0x2e,0x43,0x1e,0x13,
  0x18,0x1f,0x38,0x29,0x04,0xe5,0x00,0xdb,0x06,0x33,0xff,0x0d,0x30,0x51,0x01,0x10,
  0x32,0x01,0xff,0xfb,0x0b,0xee,0x13,0x06,0xee,0x19,0x09,0xfc,0x70,0x2b,0xe6,0xfa,
  0x7f,0x41,0xc6,0x0a,0x3f,0xfd,0x25,0xcc,0xde,0x10,0x3e,0xde,0xd5,0xea,0x09,0xd3,
  0xf1,0xe3,0x50,0xfe,0x02,0x07,0x1f,0x25,0xd8,0x37,0x1b,0xc5,0xc7,0xac,0x1b,0xdf,
  0xf5,0x05,0x2e,0x1a,0xf1,0xf3,0xf3,0xe4,0xe6,0x0e,0x11,0x14,0xea,0xa2,0xf9,0x02,
  0x44,0x04,0x34,0x2b,0x00,0x27,0xf1,0x04,0x55,0x2e,0xfb,0x1a,0x42,0xce,0xe9,0x48,
  0x07,0xf3,0x1a,0xe6,0xcf,0x24,0x06,0xef,0x39,0x07,0xd1,0xf0,0x0d,0x57,0xf4,0x31,
  0x21,0x0c,0xf0,0x14,0xeb,0x08,0xd6,0xea,0xec,0xe0,0xce,0xff,0x29,0x1f,0xf3,0x16,
  0x46,0xf0,0xec,0xf4,0x03,0x0d,0xe4,0xbf,0x1d,0xf9,0x0f,0x04,0xff,0x81,0x07,0x09,
  0xf9,0x10,0x0b,0x15,0x22,0x2c,0xd2,0x12,0x27,0xfa,0xf4,0x25,0x02,0xd4,0x0f,0x08,
  0x09,0xef,0x13,0x0b,0xfb,0x3b,0xfc,0xdf,0x19,0x16,0x36,0x0a,0xd7,0xdc,0x46,0x22,
  0xcf,0xfb,0x3b,0x06,0xcb,0x59,0x1a,0xe0,0x1d,0xc7,0xff,0x08,0xfc,0x1b,0x07,0xef,
  0x1a,0x24,0xe6,0xd8,0xdb,0x12,0xfa,0xf7,0xfa,0x18,0x20,0xe5,0xd7,0xe6,0x3f,0x32,
  0x1e,0x17,0xff,0xf2,0x0a,0xfe,0x39,0x32,0x26,0x70,0x5a,0xf1,0xf7,0xee,0x48,0x16,
  0xbe,0x34,0x18,0x12,0x04,0x20,0x3f,0x15,0x05,0x93,0xdc,0x67,0x2e,0x7f,0xb8,0x01,
  0x24,0xe1,0x89,0x26,0x3a,0x02,0xaa,0xee,0xa5,0xf8,0xec,0x2d,0x0c,0x58,0xd7,0xb8,
  0x0f,0x10,0x29,0x1a,0x1c,0xd7,0x13,0x09,0x8f,0xdb,0x03,0x0a,0x39,0x89,0x00,0xb7,
  0x64,0xe4,0xff,0x19,0x27,0x04,0x1e,0xe9,0x0b,0xcc,0xa3,0xfe,0x12,0x47,0xb5,0x18,
  0x30,0xd2,0x07,0x11,0x2b,0x29,0xdc,0xaa,0xdf,0xf1,0x04,0xe7,0x09,0x0e,0xf5,0x27,
  0x07,0x28,0x05,0x1b,0xdb,0xc3,0xcd,0xd1,0xd3,0xf0,0x11,0x33,0x0d,0xf1,0x18,0xe0,
  0x08,0x45,0xbd,0x08,0x28,0xf2,0x30,0x17,0x9d,0xfa,0xfc,0xa2,0xe7,0x62,0xdf,0xdd,
  0x37,0x21,0x85,0x56,0x11,0x19,0x32,0xd3,0xde,0x3d,0x32,0x85,0x3e,0x15,0x0f,0xf4,
  0x07,0x36,0xf5,0x1a,0xf1,0xe7,0x29,0xdb,0x1c,0x11,0x3f,0xcd,0x05,0x4a,0x31,0x08,
  0x3b,0x39,0x2a,0x2c,0x42,0xf8,0x3a,0x3c,0x02,0x07,0xdc,0x2f,0x1a,0xf9,0x20,0xfa,
  0x06,0x3b,0xda,0xf9,0x2f,0xf1,0x20,0x1c,0x0a,0x1a,0x1b,0x43,0xfd,0xdb,0x12,0xf4,
  0x21,0x10,0xd1,0xc4,0x31,0x0b,0x24,0x34,0xef,0x28,0x11,0x4e,0xf0,0xfc,0x2a,0x03,
  0x01,0x24,0x08,0xc9,0xcf,0x23,0x3b,0x1f,0x1b,0xe1,0xea,0xee,0xb4,0x81,0xff,0xfc,
  0xbf,0x09,0x13,0xce,0xb8,0xfd,0xc3,0x1a,0x02,0xf1,0x1e,0xdd,0xfc,0xf1,0x07,0xe1,
  0xf6,0x1a,0x0a,0xfb,0xc9,0x05,0x06,0x21,0x14,0x13,0x23,0xc9,0xf9,0x17,0x19,0xee,
  0x01,0x1e,0xf5,0xcf,0xbf,0x1c,0x18,0x33,0x08,0xec,0xfc,0xcc,0xf9,0x03,0x15,0x32,
  0x02,0x1a,0x15,0xcc,0xe6,0x05,0xb5,0xe2,0x2c,0xf1,0xfa,0xca,0x13,0x1f,0x1d,0x05,
  0xce,0xf6,0x11,0xb4,0xce,0x02,0xe3,0xf6,0x12,0x26,0xfc,0x97,0x08,0x20,0xec,0x12,
  0x28,0x32,0x01,0x21,0xd1,0x02,0x1a,0x02,0x12,0x03,0xf6,0x0c,0x12,0xfe,0xf4,0x12,
  0x0a,0x16,0xf8,0xfe,0xe6,0x01,0xf8,0xe9,0x0c,0x07,0x07,0xfe,0x11,0x0e,0xff,0x0c,
  0x0b,0xff,0xf9,0x1a,0xf4,0x02,0x0d,0xe2,0xe9,0xf9,0xf6,0x81,0x09,0x20,0xea,0x00,
  0x1d,0x08,0xf3,0x24,0xcc,0xdc,0x16,0xec,0x0c,0x09,0x0b,0xf8,0x04,0xce,0x0b,0xfb,
  0xe0,0xf5,0x10,0xfe,0x0e,0xfb,0xe2,0x00,0x0c,0xfb,0x07,0x29,0xee,0xd0,0x06,0x0f,
  0xd9,0x0e,0x23,0xee,0x14,0xfe,0xe3,0xf6,0x1d,0xe6,0xfc,0x28,0xe1,0x07,0x0d,0x13,
  0xad,0xda,0x08,0xce,0xf5,0xfd,0xe3,0xfd,0xe9,0xfa,0x1a,0xe3,0x06,0x05,0x08,0xed,
  0xed,0x03,0x0e,0xf7,0x07,0xfa,0x0e,0x03,0xe5,0x11,0x17,0xd7,0x14,0x1f,0x04,0xfe,
  0x12,0x07,0xe6,0xed,0x17,0x0a,0x1b,0xfb,0x09,0x12,0x19,0xbe,0xd6,0xe6,0x04,0xf7,
  0xef,0xf9,0x15,0xda,0xba,0xf5,0x0e,0x0b,0x21,0xe4,0xd0,0x20,0x08,0x50,0x00,0x0e,
  0x1c,0x19,0xe5,0x09,0x1e,0xe9,0x55,0xf2,0x1b,0xe4,0x12,0x35,0x04,0xdd,0x0c,0xe4,
  0xd5,0x00,0x1d,0x31,0x02,0x03,0xe5,0x31,0xee,0x1e,0x10,0x5f,0xac,0xd6,0x03,0xfb,
  0xff,0xd5,0x24,0x1b,0xfc,0xf0,0xe3,0x19,0x2e,0xf1,0xd0,0xe0,0x0e,0xf1,0x10,0x45,
  0x4e,0x06,0x34,0x11,0xaf,0x09,0x1d,0x31,0x3e,0xe8,0x01,0xfc,0xf5,0x9b,0xde,0x24,
  0x44,0xef,0xe9,0x50,0xff,0x1c,0xf9,0x0d,0xe1,0xbd,0xfe,0xf3,0x61,0xd4,0xf8,0x4f,
  0x44,0x30,0x09,0x62,0x02,0xef,0xee,0xda,0x30,0x17,0xf3,0xf3,0x2d,0xa7,0xf0,0x21,
  0x5a,0x11,0x34,0x05,0xf5,0x24,0x40,0x3d,0x3c,0x18,0xd0,0xd8,0x39,0x81,0x17,0x32,
  0x1f,0xe7,0x0c,0xe5,0xdd,0x08,0xb0,0xdd,0xf2,0xf2,0xfd,0x01,0x30,0xe3,0xfb,0x14,
  0x10,0x19,0x32,0x41,0x05,0x43,0xed,0x0a,0xff,0x37,0x1a,0x04,0x20,0xa6,0x1c,0x1d,
  0xd2,0x25,0x20,0x01,0x10,0x14,0x07,0x0d,0x13,0x24,0x0c,0x16,0xe6,0xc2,0x06,0x0d,
  0xe3,0xf4,0x0f,0x4d,0xf8,0xfb,0x01,0x1c,0x19,0x02,0x17,0x03,0xee,0xc7,0xef,0xf4,
  0xfa,0xd1,0x09,0x40,0xeb,0xd8,0x05,0xfd,0x1a,0xe7,0xc9,0x04,0xce,0xf7,0xf9,0x40,
  0xec,0x10,0x0a,0xd6,0x17,0x09,0xd3,0xd7,0xf5,0x25,0xf4,0x10,0xff,0xbd,0x07,0x01,
  0x09,0x09,0xe0,0xf6,0x23,0x04,0x0e,0x09,0xd8,0x09,0xf5,0xfe,0x26,0xdb,0xe5,0xb7,
  0x48,0xfc,0xc3,0x38,0x28,0xe3,0x25,0x03,0xfa,0xda,0x8b,0x05,0xf9,0xc9,0x81,0xf5,
  0xea,0x07,0x96,0x96,0x2e,0x27,0xd0,0xbd,0x26,0x14,0xc8,0xdf,0x23,0xda,0xed,0x19,
  0xf8,0x25,0xca,0xea,0x1a,0x1e,0xff,0xdc,0x11,0xd7,0xbf,0x1f,0x0f,0xd4,0x02,0xe8,
  0x04,0xf1,0x0e,0x01,0x03,0xff,0xe9,0x09,0xee,0xf0,0xe9,0xad,0xf8,0xdf,0x05,0xda,
  0x19,0x1f,0xec,0xce,0x09,0x12,0x1d,0x17,0xf8,0xf7,0xea,0xc8,0x0e,0xec,0x09,0x00,
  0x15,0x17,0xdf,0x12,0x0f,0xdf,0x15,0x18,0x07,0xee,0xee,0xb8,0x17,0x2b,0x0a,0xd9,
  0x0e,0x0c,0xf6,0xcd,0x1e,0x1b,0x0a,0xed,0x19,0xdc,0xbc,0x1e,0xde,0x88,0x07,0x26,
  0xcf,0x20,0x34,0x15,0xf5,0xf5,0xc2,0xda,0x07,0xf4,0x0a,0xe7,0xd8,0xaf,0x17,0xff,
  0xda,0xf3,0x0b,0xe7,0x02,0x11,0xce,0x12,0x01,0x09,0x07,0x08,0xe3,0x08,0x02,0xec,
  0xf7,0xf3,0x07,0x98,0x01,0x19,0x15,0x03,0x38,0xf1,0xb1,0xea,0x41,0xd9,0xe4,0x3d,
  0xd0,0x16,0x0c,0xeb,0x1a,0xf6,0x81,0xe0,0x09,0x09,0x00,0x0a,0x26,0xed,0xfd,0x1a,
  0xe0,0x04,0x03,0xea,0x1d,0x15,0xe0,0x10,0x05,0x1c,0x08,0x07,0x12,0x28,0x10,0x08,
  0x09,0x12,0xf9,0xee,0x06,0x1c,0x0c,0x0b,0x3b,0xfb,0xff,0x19,0xf8,0x35,0xfe,0x32,
  0xfc,0x0f,0x2a,0x1e,0xd4,0xf3,0x0c,0x00,0x1b,0xea,0xe3,0xd9,0x06,0xea,0x07,0x08,
  0x2c,0xff,0x1b,0xe5,0xf9,0xf6,0xfb,0x0a,0xf0,0xd1,0xe2,0x4d,0x12,0x0e,0xe1,0xd0,
  0xd7,0x16,0xdf,0xc8,0x2b,0x26,0x00,0x11,0xfa,0x17,0x13,0xae,0x05,0xe7,0x0a,0x0e,
  0x54,0x15,0xf2,0x38,0xcf,0xdc,0x31,0x12,0x07,0x23,0x1d,0xb1,0xef,0x19,0x21,0x0f,
  0xfe,0xf3,0x08,0x1b,0xb0,0x11,0xf9,0xe7,0x30,0x01,0x09,0xcc,0x05,0x1d,0x11,0x32,
  0x10,0x0d,0x1e,0x01,0xec,0x12,0xe3,0xe9,0x00,0xf0,0xdc,0xf3,0xd7,0x24,0xe1,0xd5,
  0x43,0x06,0xe3,0xf1,0xee,0xe1,0x0e,0x23,0xe0,0xfe,0xea,0xfb,0xd1,0x0c,0x1a,0x01,
  0x1b,0x1a,0x0c,0x11,0xb5,0xec,0x02,0xff,0xf3,0xee,0x0c,0xdf,0x23,0x7f,0xf8,0x19,
  0x32,0xfb,0xf6,0xf1,0xa8,0x01,0x22,0xfc,0xe7,0xee,0x1f,0xbc,0x25,0xba,0x45,0x12,
  0x1e,0x0d,0xfd,0x20,0xfd,0x33,0x46,0x2f,0xf7,0xdf,0x24,0x25,0x05,0x1a,0x36,0xad,
  0x22,0xc7,0xee,0xe5,0x3a,0x3f,0x1e,0x39,0xc7,0x1a,0xe2,0xa4,0x1f,0xf6,0x13,0xfe,
  0x35,0x29,0xc9,0xcd,0x38,0xf2,0x05,0xee,0x19,0x22,0xd7,0x27,0xdd,0xb7,0x1d,0xd1,
  0x90,0xfe,0xfa,0xdb,0x0c,0x10,0xd0,0x32,0x33,0x09,0x2c,0xce,0xd7,0x0c,0xf7,0x17,
  0xfc,0x10,0xeb,0xf2,0xdb,0x34,0x2e,0x47,0x45,0x1c,0x03,0x05,0x65,0x0b,0xed,0x4b,
  0x5c,0x3b,0x22,0x04,0xec,0x1d,0x32,0x0f,0x21,0x11,0xce,0x48,0x10,0xa8,0x0c,0xe8,
  0xd8,0xee,0xee,0xd0,0x0d,0x49,0xca,0xed,0x2e,0x0f,0x0c,0x08,0x14,0xdc,0x03,0x1c,
  0x10,0xf5,0x0e,0x06,0x10,0xf4,0x01,0xd9,0x18,0x0f,0xe9,0xc8,0x2e,0x81,0xf9,0xd1,
  0x15,0x0a,0x29,0xfe,0x0b,0x00,0xe6,0xdd,0xfc,0x2d,0xe4,0x28,0x53,0xf3,0xde,0x05,
  0x33,0x31,0xda,0x2e,0x46,0xd6,0x38,0x0c,0x11,0x52,0x1b,0x35,0xd7,0xde,0xea,0xf7,
  0x0c,0x28,0x0d,0xbb,0x09,0x28,0xf7,0x0b,0x14,0x49,0x27,0xde,0xeb,0xfa,0x38,0x17,
  0x27,0x05,0x1c,0xe6,0x81,0x1f,0x32,0x04,0xc6,0xd6,0x1c,0xbf,0xca,0xa2,0x18,0xc7,
  0x8e,0xe1,0xdd,0xa7,0xed,0xfd,0xc7,0x33,0x06,0x14,0x08,0xfb,0x10,0x31,0xee,0xc3,
  0x20,0x2a,0xcb,0xd3,0xb1,0x21,0x3c,0x19,0x06,0x15,0x00,0x9d,0xee,0x14,0x01,0xe4,
  0x2f,0x3c,0xc2,0x0a,0xaa,0xdc,0x23,0x23,0x4c,0xee,0x18,0x43,0xdb,0x2a,0x22,0x17,
  0xda,0xe5,0x3b,0xe2,0xc3,0xf9,0xcf,0x0a,0x09,0x19,0x0e,0xeb,0xbf,0xe9,0x4a,0x23,
  0xee,0xec,0x25,0xc8,0x88,0x05,0xfe,0x1e,0xfe,0xfa,0x37,0x95,0xf7,0x0f,0x14,0xf6,
  0xc0,0x19,0x1e,0x08,0xd9,0xfc,0xf8,0x45,0x27,0xef,0xad,0x0c,0x0c,0x91,0x01,0x1a,
  0x2e,0xfe,0xbb,0x17,0xeb,0x10,0xed,0xfc,0x26,0x02,0xf0,0x1b,0xfd,0x05,0x06,0x10,
  0x03,0xf8,0x0f,0x0c,0x03,0x2f,0xe6,0xf7,0x23,0x02,0xf0,0x2d,0x0f,0x61,0xfe,0xff,
  0x13,0x16,0x04,0x11,0x54,0xfe,0x0b,0x1a,0x1e,0xaf,0xd2,0x29,0xe6,0x81,0x11,0xdf,
  0x48,0xa1,0xec,0xde,0xef,0x1a,0x1d,0x22,0x13,0xd5,0xdf,0x12,0x08,0xbc,0x10,0xe3,
  0x13,0xed,0xdc,0xc2,0xf0,0x3a,0xf0,0x0f,0x23,0xeb,0xdc,0xd8,0x39,0x0b,0xfb,0x42,
  0x25,0xe8,0xf6,0x3a,0xdb,0xc3,0x0c,0x0a,0x18,0xaf,0x31,0x4e,0xf2,0x26,0x39,0xea,
  0x1a,0xce,0x01,0xf5,0x0c,0x09,0x0f,0x06,0x30,0xac,0x05,0x26,0xaf,0x32,0x25,0xef,
  0xd8,0xd1,0xf9,0xca,0xd2,0x11,0x17,0x25,0x1f,0xf9,0x06,0x04,0x0d,0xd3,0x07,0x15,
  0x96,0xe5,0x27,0x05,0xfc,0x19,0xf1,0xe2,0x0f,0x3b,0x38,0xf8,0x1b,0xee,0x1e,0x25,
  0xf7,0xec,0x20,0xa9,0xe3,0x17,0xea,0x16,0x17,0x3a,0x2a,0x2d,0x12,0x81,0x28,0x03,
  0x19,0xfd,0x11,0xd3,0xe3,0x21,0x11,0xef,0x26,0x28,0x0d,0xe9,0x4f,0xf2,0x17,0x33,
  0x10,0x23,0xfd,0x20,0xc7,0x1e,0x11,0x24,0xc0,0x5e,0x64,0xd9,0x27,0x57,0x02,0xfb,
  0xfb,0x05,0x18,0xda,0x18,0xea,0x34,0x0b,0x0d,0x3a,0x33,0xce,0x37,0xea,0xf8,0x15,
  0x1d,0x34,0x0b,0xfb,0x1d,0x00,0x23,0xd8,0x02,0xf9,0x23,0x29,0x00,0x18,0x17,0xe8,
  0xe6,0xea,0x29,0xc1,0x3c,0x3d,0x09,0x03,0xf7,0x1e,0xfb,0x23,0xdc,0x0e,0xff,0xfc,
  0x8e,0xf6,0x34,0xac,0x2f,0x23,0x0c,0x17,0xf3,0x18,0xe8,0x30,0xdc,0xf3,0xd7,0xb8,
  0xef,0x02,0x24,0xa1,0x3d,0x1e,0x05,0x1f,0xe0,0xf0,0xe4,0x34,0xe2,0xd5,0xe2,0x0f,
  0xf2,0xee,0xe8,0x8b,0x1c,0xe5,0x14,0x0c,0x05,0xec,0xdf,0x10,0x0e,0xb2,0xec,0x13,
  0x20,0xfe,0xcd,0xc4,0xec,0x26,0x30,0xde,0x02,0xe7,0xdb,0x2b,0xee,0xe6,0x08,0x0e,
  0x0a,0x12,0x17,0x37,0x46,0x09,0x0e,0x20,0x04,0x0e,0x01,0x3f,0xf5,0xfa,0xdd,0xe2,
  0xf5,0xf5,0x08,0xb0,0x4e,0xf2,0xf9,0x1a,0xec,0x0c,0x06,0x40,0x07,0x56,0x11,0xec,
  0x16,0x06,0xb1,0xe1,0x2d,0x27,0x3a,0x19,0x0e,0xfc,0x09,0x36,0x0e,0x73,0x1c,0x07,
  0x3e,0xf8,0xf4,0x07,0x48,0xf9,0xf7,0x22,0x02,0xf6,0x02,0xf6,0x02,0x36,0xd1,0x12,
  0x28,0xe6,0xf3,0x0f,0xe9,0xd1,0x10,0xca,0x00,0xf3,0x1d,0x17,0xfc,0x38,0x15,0xe1,
  0xc4,0xd1,0xee,0x20,0xdb,0xef,0x07,0x1a,0x02,0xe4,0xfb,0x21,0xce,0x43,0xfb,0x0d,
  0xd5,0x06,0x17,0x17,0xd8,0xec,0xf1,0x1a,0x00,0x0f,0x04,0xd9,0xd3,0xdb,0x06,0x2f,
  0x81,0xf4,0x2b,0x33,0xa3,0xdc,0xef,0xf0,0xdd,0x14,0x28,0xc1,0x0e,0x0b,0x14,0x11,
  0xdf,0xe0,0x1b,0xff,0x07,0x18,0x04,0xfe,0x0f,0xff,0x17,0xb2,0xff,0xec,0xf6,0x1f,
  0xf4,0x0f,0x1e,0xe3,0xea,0xe7,0x03,0x09,0x12,0xf9,0x09,0xb1,0xf1,0x19,0x07,0x0f,
  0x94,0xd4,0x06,0xcb,0xa2,0xfb,0xff,0xfc,0xf4,0x24,0xfb,0x2e,0x20,0x3b,0xfc,0x03,
  0xf4,0x1f,0xfc,0x10,0x2d,0x11,0x08,0x17,0xf0,0xfc,0xfa,0x36,0xdc,0xe2,0xf7,0xf4,
  0xe0,0xf1,0x0e,0x9c,0x37,0x0a,0x0a,0x17,0xee,0xf9,0x01,0xfa,0xcf,0xf4,0xfd,0xde,
  0xf1,0x97,0xfe,0xb3,0xd9,0xf9,0x09,0xf8,0x0b,0xca,0x81,0x2f,0xeb,0xe8,0xba,0x22,
  0x21,0x1d,0xa0,0xcd,0x02,0xf8,0xf2,0xdc,0xfc,0xec,0xb5,0x22,0xe7,0xea,0xd4,0x11,
  0x00,0xf9,0xb9,0xdd,0x06,0xf3,0xf8,0xf9,0xbe,0xeb,0x00,0xe4,0xee,0xf2,0xe9,0xcf,
  0x29,0xca,0xb1,0x47,0xf9,0xdb,0x0e,0xfa,0xac,0xc1,0xe0,0xae,0xe5,0x81,0x08,0xbd,
  0x19,0xe8,0xd6,0x36,0x1a,0xeb,0x03,0xf5,0xc8,0xe4,0x01,0xea,0x04,0xea,0x0e,0xe0,
  0xf6,0x06,0xea,0x17,0x30,0x05,0xf3,0xe9,0xe2,0xfd,0xf4,0x18,0xda,0xdc,0x06,0xea,
  0xbf,0x01,0xf5,0xe6,0x15,0xff,0xe5,0xeb,0x0c,0xf6,0x03,0x0b,0x0e,0xf1,0x19,0xe3,
  0xe7,0x09,0x18,0xf8,0x2b,0x0a,0xee,0x15,0x1d,0xf2,0x0a,0x40,0x16,0x3c,0x13,0x00,
  0xe9,0xf9,0x17,0xf6,0x2a,0x11,0x0d,0x32,0x0a,0x0c,0x03,0x01,0xfa,0x0a,0x04,0x0a,
  0x0d,0x15,0xfc,0xd2,0x16,0x14,0x16,0x02,0x03,0xf3,0xfb,0xfc,0x0d,0xbc,0x08,0x05,
  0xea,0xf0,0x0f,0xe4,0xf9,0xf2,0xde,0xfc,0x1b,0xf5,0x14,0x02,0x14,0x07,0xf7,0x07,
  0x01,0xff,0x0f,0x1a,0xf8,0xec,0xf1,0x07,0xf6,0x0c,0x0c,0xfe,0x11,0xe7,0x01,0x0f,
  0xed,0x13,0x03,0x15,0xf3,0x01,0xfb,0x0b,0xeb,0x1c,0x33,0xe1,0xf9,0x26,0x1c,0xcb,
  0x04,0xf2,0xe8,0x90,0xd3,0x32,0xf9,0xc5,0x14,0x35,0xf7,0xe9,0x48,0xd5,0x15,0x3e,
  0x16,0x53,0xff,0xe1,0xdc,0x06,0x3c,0xe8,0x16,0x2e,0x27,0x0f,0x0b,0xe8,0x1c,0xf0,
  0x2b,0xce,0x3b,0xc1,0xd1,0xd1,0x19,0x19,0x11,0x05,0x33,0xc2,0xe6,0x1a,0x05,0x52,
  0x45,0x45,0xe2,0xe6,0xbf,0xc9,0xfa,0xc8,0xfc,0x36,0x16,0x9c,0x16,0xd2,0x09,0x28,
  0x42,0x06,0x23,0x4a,0x13,0xf0,0x0e,0xe7,0xdf,0xf0,0x01,0xed,0x5f,0xfd,0xf6,0xfd,
  0x42,0xe8,0xdc,0xe3,0x20,0xf2,0xe6,0xcd,0x38,0x3f,0xff,0x81,0xfb,0xc1,0x08,0x2a,
  0x47,0xe5,0x24,0x1f,0xf8,0xc1,0xf9,0xec,0xeb,0x14,0xfb,0xeb,0xff,0x98,0xec,0xe4,
  0xf0,0x29,0x1b,0x1c,0x17,0x13,0xb7,0x01,0x18,0xf5,0xff,0x40,0xf7,0x2f,0x1a,0xf6,
  0x49,0xe6,0xfd,0xed,0xda,0x25,0x16,0x0c,0xdc,0xea,0x1b,0x0a,0x2e,0xe3,0x13,0x1f,
  0x2e,0x0f,0xd7,0xba,0x32,0x2f,0xee,0xe7,0x26,0x2b,0x10,0x44,0x2e,0x20,0xde,0x2e,
  0xf0,0xea,0x0f,0x28,0xf7,0xff,0xe9,0xce,0x39,0x30,0x1f,0xa7,0xec,0xf7,0xc4,0x2b,
  0x4d,0xcf,0xe1,0x39,0xbb,0xab,0x24,0xd9,0xfc,0x35,0x04,0x2a,0xe0,0xe4,0x34,0x10,
  0x22,0x30,0xf1,0xc9,0x0a,0x19,0x37,0xd8,0xea,0x37,0x29,0xde,0x32,0xc1,0x1a,0x35,
  0x01,0xf5,0x32,0xf8,0x14,0xe4,0xea,0x1b,0x36,0xc8,0xd2,0xf0,0x7f,0xf0,0xcb,0x45,
  0x6d,0xdf,0xfd,0x52,0x05,0xbf,0xd4,0xfa,0x1d,0x42,0x11,0xd2,0x61,0xb8,0x13,0x37,
  0x6c,0x48,0x17,0x10,0x29,0xeb,0x2c,0xb4,0x9d,0xf2,0xe5,0x9c,0x1c,0x90,0xee,0xb7,
  0x13,0x00,0xe8,0x22,0x4a,0xef,0xf4,0xfd,0xa2,0xde,0xe3,0xcb,0x0d,0x89,0x1d,0xfe,
  0x3a,0xcf,0xce,0x20,0xc9,0xc7,0xee,0xe0,0x76,0xde,0xff,0xff,0x04,0x00,0x00,0x00,
  0x80,0x00,0x00,0x00,0xbc,0xff,0xff,0xff,0x95,0xff,0xff,0xff,0x61,0x00,0x00,0x00,
  0x6f,0x00,0x00,0x00,0x6b,0x00,0x00,0x00,0x59,0x00,0x00,0x00,0x9e,0x00,0x00,0x00,
  0xc1,0xff,0xff,0xff,0x0b,0x01,0x00,0x00,0x53,0x00,0x00,0x00,0x37,0x00,0x00,0x00,
  0x74,0x00,0x00,0x00,0xe8,0x00,0x00,0x00,0xa7,0xff,0xff,0xff,0x5f,0xff,0xff,0xff,
  0xfa,0xff,0xff,0xff,0xf7,0x00,0x00,0x00,0xfe,0x00,0x00,0x00,0xdb,0xff,0xff,0xff,
  0x1e,0x00,0x00,0x00,0xf2,0xff,0xff,0xff,0xba,0x00,0x00,0x00,0xab,0xff,0xff,0xff,
  0xa0,0xfe,0xff,0xff,0xc6,0x00,0x00,0x00,0xc2,0xff,0xff,0xff,0x61,0xff,0xff,0xff,
  0xf1,0xff,0xff,0xff,0xab,0xff,0xff,0xff,0xd5,0xff,0xff,0xff,0x2c,0x01,0x00,0x00,
  0x5a,0x00,0x00,0x00,0x02,0xdf,0xff,0xff,0x04,0x00,0x00,0x00,0x00,0x04,0x00,0x00,
  0xdc,0x22,0xeb,0x4f,0x06,0x52,0x8a,0xa4,0x2e,0x4e,0x24,0x38,0x1c,0x3e,0xb7,0x18,
  0x1e,0x48,0xf7,0xdc,0x50,0x81,0x46,0xf5,0x3d,0x7f,0xc8,0x42,0x4e,0x39,0xbf,0xf3,
  0xba,0x4a,0x98,0x51,0x09,0x3d,0xb6,0xee,0x05,0x38,0xa2,0x24,0x22,0x85,0x14,0x21,
  0x0a,0xcc,0x48,0xb2,0x94,0xeb,0x18,0xed,0xb1,0xc2,0x50,0x99,0x5e,0xd8,0x26,0x2f,
  0xe2,0xe7,0x2e,0xed,0x2c,0x0d,0xa5,0xd9,0xfe,0x23,0xde,0x37,0x4a,0x30,0x07,0x31,
  0xbd,0x26,0x35,0xfd,0x0d,0x0f,0x0f,0xc0,0x0a,0x16,0x38,0x6f,0x0d,0xbf,0xf7,0xf7,
  0x2f,0xf9,0xa8,0x24,0xed,0xea,0xd7,0x0f,0xb7,0xeb,0xe0,0x51,0x11,0x81,0x67,0x02,
  0x1b,0xf5,0x0e,0xfc,0xf0,0xd2,0x37,0x20,0xfc,0xaf,0x48,0xfc,0x67,0xac,0xfc,0xd6,
  0xbe,0x56,0xf2,0xe4,0x2b,0xe8,0x14,0xdd,0xd6,0x2f,0xf8,0x12,0xfa,0xff,0xc6,0x4d,
  0x1c,0x48,0xfd,0x0b,0xe7,0x70,0x05,0x2e,0xd9,0xcf,0xde,0x56,0x2a,0x67,0x28,0xda,
  0x25,0x8f,0xeb,0xee,0x04,0x17,0x02,0x2a,0xf4,0x0a,0x10,0x81,0x12,0x2b,0xef,0xc5,
  0x31,0xfa,0x71,0xd3,0xc1,0x84,0x33,0xfa,0xdb,0xef,0x4a,0x3a,0x52,0xf8,0xd2,0xfc,
  0xb3,0xef,0xf3,0x09,0xe6,0x21,0xca,0xc0,0x15,0xdd,0x42,0x3d,0x06,0xf8,0xf8,0xf9,
  0xfb,0xd6,0x34,0x2b,0xdd,0x8c,0xfd,0xe7,0xee,0x81,0x0b,0xcf,0x16,0x15,0xe9,0x2a,
  0x34,0xea,0xdc,0xdc,0x34,0x32,0x1d,0xec,0x3f,0x9b,0x9c,0xef,0x34,0xe1,0xee,0x00,
  0xa3,0xf8,0xd9,0x3b,0xfe,0xef,0x13,0x18,0xe2,0xec,0x15,0x55,0xeb,0xa6,0x1a,0x14,
  0xd7,0x0f,0xe3,0xea,0x1b,0x19,0x9e,0xff,0x47,0x99,0xf1,0x07,0xb4,0x21,0x0e,0x29,
  0xe3,0x99,0xd2,0xe6,0xe8,0xba,0x09,0xca,0xfe,0x3e,0x0e,0xee,0x18,0xe6,0x0d,0xd8,
  0xee,0xc9,0xe6,0x3f,0x31,0x2a,0x0f,0xe5,0x35,0xca,0xd5,0xe5,0x61,0xdc,0xad,0x2a,
  0x35,0x2e,0xe6,0xea,0x25,0x0c,0xdf,0xe6,0x1a,0x81,0x23,0x1a,0x00,0xcb,0x46,0x21,
  0x05,0x18,0x2c,0xb7,0xf7,0xe8,0x02,0xe1,0xeb,0x12,0x13,0xbd,0x18,0xcd,0xf2,0x23,
  0x03,0x22,0xbc,0xf3,0x0a,0xde,0x05,0xd1,0xf2,0x81,0x22,0xdf,0xcc,0xd5,0x18,0x14,
  0x1f,0x47,0xdc,0x06,0x26,0xf7,0x0d,0x44,0x3f,0xda,0x16,0x0f,0xe8,0xe9,0xfe,0xf0,
  0x2e,0x10,0x0d,0x01,0xec,0xb2,0x03,0xf3,0x27,0xf5,0x1f,0xd7,0xde,0xca,0xea,0xc6,
  0xe9,0x06,0x2b,0x31,0x36,0xf7,0x1a,0x05,0x0d,0xe0,0xcb,0xfd,0x0b,0x18,0x96,0xed,
  0xee,0xe6,0xeb,0xec,0xe0,0x85,0xcd,0xeb,0x31,0x7f,0xcf,0x1c,0x2d,0x4a,0xcc,0x26,
  0xef,0x1a,0xe1,0x9e,0x1c,0x5c,0xdc,0xd6,0x62,0x10,0xfb,0x5e,0xfc,0x4f,0xfe,0x40,
  0x00,0xaf,0xf8,0x12,0xb4,0xd1,0x46,0x1e,0xc5,0xe3,0xdd,0xb1,0x68,0x0f,0xeb,0xe7,
  0x18,0x3c,0xd0,0x03,0x37,0xc2,0x16,0xf3,0x30,0xc7,0xd8,0xdf,0x01,0xe0,0x49,0x29,
  0x4e,0xc1,0x13,0x4f,0xd8,0x28,0xd5,0xfc,0xfd,0x03,0x2d,0x43,0x12,0x1a,0x14,0x26,
  0x0f,0x1c,0x5f,0xf8,0x21,0xb8,0xd2,0x26,0x9f,0xcd,0x0e,0xed,0xc6,0x34,0x38,0x2a,
  0xa9,0xc8,0x16,0xe1,0x0b,0xe8,0xdb,0x37,0x16,0x64,0xeb,0x7f,0xc6,0x66,0xc4,0xe4,
  0x45,0x02,0x0d,0x16,0x4b,0xa1,0xd9,0x14,0x15,0x1d,0xd3,0xc6,0x09,0xb0,0x32,0xe8,
  0x1a,0x0d,0xd8,0xe9,0x0d,0x21,0x33,0xcc,0x16,0xa1,0x08,0xc9,0xbf,0x13,0x00,0x03,
  0xf4,0xe6,0x21,0x50,0x22,0x2f,0xdb,0x01,0xf9,0x6d,0x35,0x7f,0xed,0x6c,0x2a,0x9d,
  0x46,0xca,0xaf,0x24,0x51,0xd8,0xe2,0xdd,0xc6,0xe5,0x20,0x31,0x28,0xff,0x32,0x18,
  0xab,0x03,0xfe,0x04,0xd1,0x30,0x7f,0xef,0xdf,0x12,0x0f,0x19,0xee,0x34,0x08,0xf8,
  0x0e,0xa5,0x21,0x11,0x0c,0x0b,0x09,0x17,0xe5,0xd3,0xfd,0xdb,0x1a,0x3a,0x41,0x98,
  0xd1,0x1b,0xe8,0xa8,0x21,0xae,0xe7,0x24,0xe5,0xc8,0xfd,0xd7,0xff,0xc0,0xf8,0x29,
  0x1a,0x0c,0x28,0xe3,0x2f,0x21,0xb1,0x15,0x09,0x03,0xd9,0xf8,0x1b,0xff,0xf5,0xc4,
  0x01,0x08,0x16,0x33,0xf4,0x22,0xc8,0x51,0x48,0xf0,0xda,0xf2,0xec,0xcc,0xe5,0x1d,
  0x02,0xb6,0xe4,0xfc,0xd8,0x61,0x34,0x4a,0x04,0xfd,0x25,0x45,0x17,0x55,0x87,0x5d,
  0xf8,0x49,0x03,0xe8,0xb0,0xf7,0x9c,0xa3,0xac,0x94,0x30,0xb5,0x81,0xaa,0x22,0x03,
  0xfd,0xf4,0xfc,0x56,0x12,0xfa,0xcf,0x45,0xd8,0x33,0x0b,0xe1,0x6c,0x3d,0x05,0x4d,
  0x40,0x34,0x36,0x32,0x01,0xf6,0xdb,0xbc,0xeb,0x00,0x15,0x0e,0xfa,0x0e,0x7f,0x17,
  0xd6,0x09,0xc1,0x40,0x26,0xcf,0xfb,0xea,0x41,0x14,0x24,0xec,0x37,0xc1,0xee,0x09,
  0xf2,0xf9,0xec,0x06,0x04,0xe2,0x40,0xcb,0x9a,0x0e,0x22,0xbe,0xf2,0xe9,0x40,0xe9,
  0x82,0xe3,0xed,0x0e,0x06,0xc4,0x37,0x31,0xe1,0x11,0x43,0x07,0xbe,0x1f,0x21,0x42,
  0x13,0xeb,0x5b,0xdd,0xb6,0x12,0x1d,0x4d,0x1a,0x1a,0xd1,0xcf,0x11,0x98,0xcb,0xf2,
  0x2d,0x1d,0x30,0x14,0xde,0x1f,0x25,0x4b,0x20,0xf9,0x49,0x24,0x17,0x3a,0xf7,0xe5,
  0x4e,0x2f,0x22,0x9d,0x2d,0x88,0xda,0x4b,0xb2,0x17,0x3e,0x81,0xee,0x86,0xa2,0x38,
  0xc0,0x45,0xc4,0x21,0x85,0xf6,0x2a,0xf6,0x2c,0x4c,0x01,0x4e,0xb6,0xd6,0x2d,0x0c,
  0x23,0xff,0xfd,0x3a,0xd7,0xba,0x39,0x3b,0xd8,0xf3,0xfa,0xe2,0x0f,0x1f,0x17,0x0a,
  0xd7,0xcf,0xcf,0xee,0x40,0x97,0x1a,0x3f,0xc1,0xf6,0xf4,0xb3,0x10,0x08,0xa4,0xfa,
  0xd3,0xed,0x59,0x4d,0xfc,0xd7,0xf8,0xf8,0x1a,0xea,0x64,0xd7,0xfe,0x45,0xcb,0x86,
  0xb3,0x56,0x81,0x3d,0x13,0x2c,0xcd,0x31,0x31,0x22,0x1b,0xc7,0x8f,0x06,0x05,0x43,
  0x6a,0xc9,0xfe,0x09,0x0d,0xe0,0x1f,0xae,0x07,0x0f,0xe3,0xf3,0x1e,0x45,0xd8,0x3a,
  0xae,0x28,0xdd,0xfe,0x00,0x66,0x49,0xb0,0x12,0x8c,0xf8,0x14,0xd1,0xfe,0xf4,0x4c,
  0x05,0x34,0x07,0x10,0xfa,0x03,0x9f,0xba,0xc1,0x7f,0xe2,0xfc,0xd4,0x6e,0x46,0x1e,
  0x0d,0xa2,0x0f,0x20,0x37,0xc2,0x42,0xca,0xeb,0x15,0xee,0xe5,0xf6,0xf4,0x43,0x06,
  0xf2,0x39,0x44,0xcc,0xf5,0x05,0xff,0xe7,0x31,0xf4,0xe8,0x05,0x0e,0xd9,0x66,0xc1,
  0xe5,0x49,0x16,0x05,0xf6,0xf4,0x31,0xf1,0x1f,0xf9,0x25,0x3a,0x49,0x14,0x19,0xda,
  0xd7,0xda,0xf5,0x33,0x36,0x9a,0xd3,0x1f,0x41,0xbc,0x7f,0xad,0xc6,0xa8,0x43,0xeb,
  0x29,0x3a,0xc4,0xfc,0xca,0x3d,0x24,0x17,0x5a,0xdc,0xba,0x18,0xb6,0x62,0x17,0xdf,
  0x0e,0xe3,0xff,0xff,0x04,0x00,0x00,0x00,0x40,0x00,0x00,0x00,0xed,0xff,0xff,0xff,
  0xbf,0xff,0xff,0xff,0xfe,0xff,0xff,0xff,0x41,0x00,0x00,0x00,0x4f,0x00,0x00,0x00,
  0x28,0x00,0x00,0x00,0x1b,0x00,0x00,0x00,0xb6,0xff,0xff,0xff,0xe1,0xff,0xff,0xff,
  0x20,0x00,0x00,0x00,0x92,0xff,0xff,0xff,0xe4,0xff,0xff,0xff,0x01,0x00,0x00,0x00,
  0x3e,0x00,0x00,0x00,0x01,0x00,0x00,0x00,0x12,0x00,0x00,0x00,0x5a,0xe3,0xff,0xff,
  0x04,0x00,0x00,0x00,0x00,0x02,0x00,0x00,0x20,0x18,0x12,0xf6,0xfa,0xc3,0xe8,0xa2,
  0x2b,0x81,0x33,0xf9,0x0b,0xaf,0xd2,0xe8,0x81,0x0e,0x00,0xb5,0xc6,0x82,0x20,0x10,
  0xfe,0x1d,0xb2,0x1f,0xd1,0x59,0xae,0xd6,0xfe,0xff,0x12,0x1b,0x4b,0x10,0x8f,0x81,
  0xdd,0xd6,0xce,0xf8,0xed,0x03,0x1c,0xdb,0xe0,0xa7,0xb2,0x04,0x31,0x62,0xa3,0x0b,
  0xd0,0xe9,0xb5,0x00,0x0a,0x7f,0xfa,0xff,0x89,0x1e,0x03,0x1c,0xf1,0x23,0xd7,0x01,
  0xd4,0xb4,0x81,0xf8,0x33,0x00,0xde,0xf4,0x81,0xd5,0x94,0xfa,0x3b,0x31,0xba,0xea,
  0xe8,0xd0,0x8b,0x27,0x48,0x2c,0x59,0xfb,0xd2,0xc3,0xf0,0xfa,0x81,0xd8,0xff,0x2a,
  0x55,0xdc,0xee,0xea,0x81,0xbc,0xd9,0x51,0xaf,0x24,0xd0,0xde,0xf4,0x3e,0x81,0xd2,
  0xc7,0xc7,0x1d,0xef,0x2b,0x22,0x10,0x14,0xe0,0x13,0xc4,0xd0,0x65,0xc2,0x12,0x81,
  0xdf,0x22,0x8c,0x4e,0xa2,0x37,0xfb,0x04,0x88,0x81,0x9f,0x99,0xe4,0x4e,0xa3,0xb9,
  0xfd,0xd8,0xf2,0x21,0x4a,0x36,0xee,0xf1,0x1c,0x0a,0x81,0xf3,0xf0,0xc7,0xfe,0xe4,
  0xd7,0x32,0xe7,0x27,0xb8,0x1c,0xe1,0x00,0xf9,0xf4,0xd8,0x01,0x20,0x08,0x2e,0xf4,
  0xbe,0xf7,0xf0,0x81,0xba,0xa7,0xe2,0xd4,0x07,0xfa,0x41,0xf6,0xcd,0xe7,0xa2,0x12,
  0x81,0xb2,0x91,0x12,0x1f,0xb4,0x96,0xf5,0x0f,0x2d,0xa4,0xe4,0xfd,0xc1,0x22,0xe1,
  0xdb,0xd1,0xf4,0x81,0x02,0xc3,0x3f,0xd2,0x30,0x3a,0xb7,0x81,0xd7,0xad,0xec,0x0d,
  0xee,0xe2,0x08,0x8a,0xe5,0x2a,0x51,0xca,0x9b,0xbc,0xe6,0xe6,0xcc,0xc5,0xe2,0x21,
  0xfc,0xd3,0x81,0x1a,0x25,0x29,0xe8,0xed,0x13,0xc3,0x15,0xbc,0x19,0xd0,0xd0,0xaa,
  0x7f,0xa0,0xd7,0x1c,0x9a,0x01,0x07,0xfa,0x68,0xf8,0x81,0x0c,0x27,0xd3,0xe3,0xd8,
  0x00,0x09,0xde,0x8d,0xbc,0xe0,0xd9,0xe4,0xfa,0x02,0xec,0x54,0x0f,0xed,0xfa,0xfa,
  0xc2,0xcc,0xf4,0x81,0x18,0xef,0x5a,0xff,0xbc,0xde,0xdc,0x22,0x51,0xe4,0xf0,0xcb,
  0xa2,0x51,0x81,0xfc,0xee,0x4b,0x58,0x3f,0x9c,0xbd,0xb5,0xd8,0xf9,0xcf,0x1d,0xa3,
  0x57,0xe5,0xd5,0xd5,0xf9,0x7f,0x23,0xe7,0x90,0x1b,0xe6,0xfd,0x5d,0x57,0x81,0xb5,
  0xac,0x08,0xc7,0xd6,0x06,0x12,0x32,0x3c,0xef,0xcf,0x8f,0xaa,0xd3,0x81,0x81,0x35,
  0xa8,0x12,0x78,0xdb,0xfb,0xb9,0x01,0xe2,0xbe,0xeb,0x05,0x31,0xb7,0xaf,0xd4,0xfd,
  0x81,0xd3,0x0c,0xda,0x3a,0x01,0x0b,0x68,0xda,0xa9,0xb4,0x89,0x01,0xc4,0x5b,0x13,
  0x10,0x9b,0xd4,0xb9,0x7f,0x51,0x46,0x9c,0x1d,0xc2,0x08,0xf9,0x81,0xe1,0xc8,0xb8,
  0x3c,0x15,0x26,0x0f,0xb7,0x16,0xf6,0x40,0x11,0xac,0xf9,0x45,0x21,0xea,0x07,0xc3,
  0xba,0xfe,0xf6,0x81,0x13,0xee,0xf8,0x30,0xad,0xa2,0xd2,0x04,0x85,0x01,0x81,0x11,
  0xdd,0x8d,0xdf,0x29,0x49,0x4e,0xf4,0xd5,0x81,0xff,0xc2,0x83,0xf2,0x6a,0xde,0xe3,
  0x36,0x00,0xd4,0xc4,0xe1,0x01,0xd3,0x41,0xcf,0xa6,0xdc,0x81,0xbe,0xbf,0xd8,0x22,
  0x0d,0x0d,0xd5,0x11,0x1b,0x44,0xdf,0xdd,0xee,0xbb,0xc8,0xb1,0xac,0x81,0xca,0x16,
  0x0d,0xf6,0x43,0xd3,0xfa,0xe1,0x22,0x35,0xf1,0xc6,0xf4,0xd5,0xe7,0xd0,0xdc,0x15,
  0x81,0xf1,0x0f,0x21,0x3b,0xaa,0xd8,0x38,0x66,0xe5,0xff,0xff,0x04,0x00,0x00,0x00,
  0x80,0x00,0x00,0x00,0xa7,0xff,0xff,0xff,0x04,0x00,0x00,0x00,0xa6,0xff,0xff,0xff,
  0x21,0x00,0x00,0x00,0x05,0x00,0x00,0x00,0x2d,0x00,0x00,0x00,0x8b,0xff,0xff,0xff,
  0xb1,0xff,0xff,0xff,0xec,0xff,0xff,0xff,0x19,0x00,0x00,0x00,0x24,0x00,0x00,0x00,
  0x85,0x00,0x00,0x00,0xaf,0xff,0xff,0xff,0xf4,0xff,0xff,0xff,0x89,0xff,0xff,0xff,
  0x25,0x00,0x00,0x00,0x95,0xff,0xff,0xff,0x45,0x00,0x00,0x00,0xf6,0xff,0xff,0xff,
  0x83,0x00,0x00,0x00,0xf3,0xff,0xff,0xff,0xf9,0xff,0xff,0xff,0x17,0xff,0xff,0xff,
  0xd0,0xff,0xff,0xff,0x42,0x00,0x00,0x00,0x78,0xff,0xff,0xff,0x45,0x00,0x00,0x00,
  0x3d,0x00,0x00,0x00,0x19,0xff,0xff,0xff,0x0c,0x00,0x00,0x00,0xc5,0xff,0xff,0xff,
  0xc9,0xff,0xff,0xff,0xf2,0xe5,0xff,0xff,0x04,0x00,0x00,0x00,0x00,0x12,0x00,0x00,
  0x0b,0xef,0xf9,0xf4,0x14,0xb9,0xf2,0x01,0xe8,0x0c,0x00,0x18,0xea,0xc9,0x87,0x13,
  0xb9,0xe3,0xe3,0xd2,0xd5,0x2b,0xe5,0x28,0xf0,0xe8,0x01,0x16,0x17,0x2b,0x96,0x33,
  0xc5,0xab,0x92,0xb0,0xd4,0x0d,0xac,0xd2,0xdc,0xda,0xb2,0x06,0xbd,0x19,0xf4,0xcc,
  0xe9,0xfc,0x00,0x24,0x30,0xf9,0xf1,0xdc,0xcd,0x23,0xc1,0x05,0xf7,0xff,0x84,0x27,
  0xdc,0xd5,0xfc,0xe6,0x18,0x26,0xea,0x0f,0xef,0x29,0xf0,0xfa,0xeb,0x09,0x81,0x34,
  0xd4,0xe7,0xa7,0xe0,0xd9,0x75,0xf3,0x29,0x06,0x14,0xc3,0x29,0xcf,0x0b,0xda,0x1b,
  0x03,0xfe,0xeb,0x19,0x06,0x48,0xc2,0xf9,0x13,0xf5,0xf7,0xf6,0xe7,0x47,0x2c,0xe6,
  0x17,0x05,0xfe,0xe8,0x02,0xf4,0x08,0xe3,0xe2,0x08,0xf2,0x11,0xfc,0x02,0x10,0xfd,
  0xe2,0x09,0xf5,0x1e,0x09,0x26,0xdd,0x24,0xdf,0x0a,0xf3,0x2b,0x0e,0x9a,0xe3,0xe8,
  0xe2,0xe1,0xea,0xcd,0xf5,0x14,0x33,0x2e,0x1d,0xfa,0x0e,0x00,0xc1,0x2e,0xf7,0xd8,
  0x01,0xe6,0xfe,0xd0,0xb5,0xfc,0x1e,0x17,0x0c,0x01,0xe8,0xee,0xed,0x01,0x00,0x28,
  0x11,0xb7,0xed,0xbb,0x07,0xbf,0x25,0xcf,0x03,0x9d,0xc8,0x81,0xc4,0x48,0x11,0xd0,
  0xf4,0xdc,0x06,0xc1,0xe2,0xf5,0x18,0x22,0x1c,0xce,0x1c,0xba,0xe2,0x44,0xf2,0xf1,
  0x0e,0xff,0x31,0x09,0xfc,0xf7,0x24,0xf4,0xc6,0xd9,0xf6,0xa9,0x12,0x2a,0x0d,0xe0,
  0x02,0x03,0xf3,0x38,0x16,0x01,0xfa,0xc2,0x14,0xcf,0xe7,0xbd,0x26,0x1c,0xe0,0xe4,
  0x06,0xef,0x31,0xff,0xd4,0x1d,0xfd,0xfe,0x11,0xab,0xea,0xee,0x0d,0x23,0x0c,0x15,
  0xf5,0xe0,0x3e,0x1a,0xfc,0x0b,0xfd,0xde,0x01,0xf7,0xc8,0x0e,0x27,0x0d,0x0d,0xf0,
  0xfc,0x08,0xf0,0x1c,0xc6,0x00,0xd9,0x11,0xef,0x16,0x17,0x1a,0x16,0xe0,0x30,0xd9,
  0xf2,0xfa,0x01,0xfa,0x08,0x39,0x0f,0xed,0xfe,0x1b,0xd4,0x05,0x11,0x0b,0x0f,0xfc,
  0x0d,0x02,0x21,0x24,0x00,0xec,0xf9,0xf4,0xb3,0x1a,0xd5,0x13,0xfa,0xf5,0xd3,0xf4,
  0xcf,0xfa,0x47,0x35,0xe7,0x0d,0xd8,0x00,0xb5,0xc3,0xe3,0x03,0xf3,0x02,0xec,0x16,
  0x22,0x00,0xe6,0xed,0x02,0x20,0x26,0xdf,0xe6,0x12,0xd7,0xf7,0xfe,0xda,0x2d,0xf6,
  0x06,0x16,0x1b,0x28,0x02,0xfb,0xf5,0xef,0x98,0xd2,0x15,0x17,0xf8,0xdf,0xec,0x27,
  0xc9,0xf1,0x0a,0x0e,0xd6,0x3b,0xd6,0xef,0xc7,0x99,0x04,0x10,0x19,0xe5,0x27,0x22,
  0x1f,0x14,0x18,0x09,0x00,0x55,0x0e,0xe8,0xbf,0xe0,0xc8,0xf3,0x23,0xda,0x1c,0x11,
  0xd3,0xe2,0xf9,0x07,0x02,0x3b,0x99,0xf6,0xae,0xcd,0xfb,0x15,0xec,0xf4,0xc5,0xfd,
  0x81,0xda,0xdd,0xf1,0xc9,0x74,0xea,0x0c,0xef,0xeb,0x01,0x11,0xf3,0x01,0x2f,0x09,
  0x35,0xff,0x04,0xb2,0xed,0x12,0x04,0xd0,0x35,0xe5,0xde,0xce,0xe8,0x86,0x0e,0xef,
  0x09,0x1c,0x27,0xea,0xf4,0xe3,0x01,0xed,0xff,0xe8,0x03,0x1c,0xea,0xc0,0xf2,0xf5,
  0xf6,0x0c,0xdf,0xd6,0xee,0xe0,0xff,0x0f,0xf2,0xff,0x16,0x05,0xd3,0xcd,0xe3,0x15,
  0x07,0x02,0x25,0xdb,0xf1,0xfc,0xd6,0xf8,0xf3,0xe4,0xdc,0x07,0x01,0xd5,0x0a,0x16,
  0x0c,0x0b,0x03,0xf8,0x07,0xe4,0x09,0xf4,0x13,0xd8,0x12,0x1a,0xfc,0x25,0xf9,0x07,
  0x03,0x0e,0xe6,0xdf,0xfe,0xc2,0xee,0x02,0xfe,0x09,0x23,0x1b,0xec,0xf6,0xce,0x0d,
  0x03,0xbd,0x34,0xa9,0xed,0xde,0xea,0xae,0xc2,0xc6,0xe9,0xc5,0xe5,0x81,0xf8,0xda,
  0x2c,0x2c,0x1b,0xf7,0x0f,0x0a,0x20,0xc3,0x21,0xd2,0xd9,0xc4,0xc9,0xea,0x1d,0x25,
  0x01,0x22,0x22,0xdb,0xff,0x07,0xe4,0x02,0xcd,0x09,0x11,0xee,0x11,0xd5,0xef,0xe8,
  0x0c,0x03,0xf2,0xe0,0xfc,0xe3,0x1b,0xeb,0xcc,0x20,0x08,0xd8,0x01,0xc9,0x32,0x09,
  0x08,0x13,0xfe,0xe1,0x11,0xca,0xde,0xff,0xc9,0x15,0x00,0xd2,0x01,0xf1,0x1a,0xfc,
  0xf3,0x11,0x04,0x0a,0x00,0xd2,0xf7,0x1e,0x30,0x08,0x13,0xdd,0x04,0xeb,0x36,0xf3,
  0x22,0x0c,0x08,0xd2,0xf0,0xce,0x07,0x12,0x0e,0x28,0x15,0xf1,0xe4,0x1f,0xf7,0x01,
  0xe3,0x01,0xe0,0x0c,0xf3,0xc8,0xc8,0x23,0xff,0x25,0x1b,0xfa,0xfd,0x2c,0x06,0x05,
  0x16,0x22,0xfb,0xf9,0xff,0xdd,0xd5,0xfe,0x0e,0x16,0xf7,0x08,0xf1,0xf8,0x00,0xc6,
  0x11,0xdd,0xef,0xea,0xe7,0xcb,0xdb,0x18,0xff,0x16,0xe9,0xf6,0xe5,0x03,0xd1,0xf7,
  0xf9,0xee,0xc5,0xec,0x11,0xbb,0xb0,0xfc,0x0b,0xd2,0x17,0xfd,0xf2,0x26,0xe3,0xed,
  0x2e,0xfd,0x0b,0x0b,0x30,0xe3,0x1a,0xc0,0x1e,0x81,0x14,0xee,0xc8,0x0a,0xf8,0xc2,
  0x04,0xdb,0x20,0xff,0xfc,0x01,0x02,0xf0,0x3b,0xf9,0x21,0xf7,0xdf,0xd1,0xff,0x11,
  0x13,0xea,0xfc,0x01,0x21,0xe1,0xd5,0xe2,0x0a,0x03,0x0a,0x22,0xdf,0xff,0x14,0x20,
  0xd1,0xec,0x22,0x08,0x15,0x08,0xd8,0xec,0xe4,0xdc,0x15,0x21,0xf7,0x1a,0xfb,0xff,
  0xfe,0x17,0x11,0xe5,0xe3,0x4d,0xe5,0xab,0x04,0xc8,0x0e,0xf0,0xe3,0xe1,0x0a,0x54,
  0x1f,0x30,0x15,0x0a,0x18,0xf9,0xd6,0xb1,0xf0,0xcd,0x05,0x07,0xe9,0x03,0x0a,0x16,
  0xe3,0xee,0xec,0xf0,0x07,0x1a,0xae,0xf7,0x91,0xec,0x18,0x12,0x17,0xf6,0x10,0x20,
  0xcd,0x01,0xf0,0xe3,0xde,0x29,0xf1,0x9c,0x0c,0x99,0xf6,0xbc,0xdc,0xde,0x1a,0xfd,
  0x02,0x04,0x38,0xe1,0xff,0xf8,0xcb,0xf9,0x02,0xa8,0xad,0xe0,0x0a,0xbe,0x32,0x15,
  0x19,0x04,0x0c,0x15,0xef,0xbc,0xfc,0xfb,0xab,0xdf,0x0d,0xf0,0x47,0x81,0x4b,0xb6,
  0xdf,0x03,0x14,0xc8,0x9a,0x01,0xf1,0x0a,0xef,0xf5,0x2e,0xef,0x20,0xad,0x32,0xdf,
  0xd1,0x07,0x27,0x10,0xe0,0xe8,0xcd,0x16,0x1c,0xd9,0x04,0x1b,0x0b,0xf7,0x25,0x05,
  0xc2,0xdb,0x30,0x13,0xac,0x39,0xeb,0x08,0x10,0xf8,0xeb,0xe2,0xf5,0x11,0xe1,0xe7,
  0x00,0x0b,0x34,0xec,0xd7,0xbf,0x5b,0x10,0xb6,0xe0,0xfe,0xec,0x29,0xd8,0x01,0x0e,
  0xf0,0x0b,0xf2,0x02,0xf7,0x16,0x24,0x15,0xc0,0x02,0x07,0x03,0x15,0xf5,0x18,0x1b,
  0xdd,0xd9,0xb5,0x06,0x20,0x1c,0x0d,0x19,0xea,0x14,0x07,0x2d,0x05,0x15,0x20,0x0f,
  0xdf,0xe2,0xf3,0xa8,0xb2,0x18,0x36,0xe6,0xee,0xe8,0x02,0xb6,0xf6,0xf1,0x15,0xf4,
  0xdf,0xf2,0xc4,0xdc,0xd2,0x17,0x02,0xb8,0xf8,0xda,0x0f,0xe4,0xeb,0x11,0x18,0xef,
  0xcc,0xef,0xa7,0xbf,0x19,0x0b,0xcb,0xd7,0x2b,0x81,0x0e,0x1d,0xf5,0x26,0xfd,0x25,
  0xfb,0xdc,0x07,0xef,0xff,0x07,0x04,0xfc,0x10,0x01,0x22,0xdc,0xf7,0xc7,0xff,0xe7,
  0xf7,0xe5,0x1b,0x04,0x0d,0xe8,0xd2,0xee,0x05,0xf9,0x18,0x0d,0x04,0xea,0x11,0x12,
  0xfe,0xe3,0x3f,0x1f,0xf7,0x2c,0x03,0xd2,0x08,0xee,0x01,0x07,0xf9,0x07,0x17,0x03,
  0xf8,0xec,0x21,0x02,0x0c,0x1f,0xff,0xea,0x06,0xca,0x0a,0x0d,0xf7,0xe4,0x16,0x19,
  0xda,0xec,0x2a,0x18,0xf9,0x18,0xe8,0xe2,0xc6,0x06,0x07,0x0e,0xff,0xe0,0xd2,0x01,
  0xc5,0xe8,0xf8,0x18,0xdd,0x10,0xb9,0x04,0xc1,0x1f,0x1d,0x10,0xef,0xd6,0x13,0x0a,
  0x02,0x18,0x02,0x0d,0x1b,0x31,0x21,0xca,0xf8,0xcb,0xda,0x0f,0x1f,0x01,0x28,0x00,
  0xe8,0x19,0x18,0x03,0xe6,0x32,0x81,0xe8,0xc6,0xc6,0xec,0x24,0x18,0xff,0xfb,0x24,
  0x0e,0x0e,0x04,0xe5,0xd0,0x0a,0xbd,0x06,0xc3,0xf8,0x09,0x0b,0x16,0xd3,0x16,0xb9,
  0x36,0xfe,0xe8,0xca,0xf9,0xdc,0xee,0x0c,0xd2,0x2f,0x20,0xf2,0xfb,0xe3,0x12,0x13,
  0xf4,0x0d,0xd8,0xf1,0x2b,0xdc,0xcb,0x26,0xfb,0x26,0x13,0xea,0x0d,0x05,0xf6,0x04,
  0xf5,0x03,0x04,0x02,0x34,0xff,0x0f,0x0b,0x16,0xc6,0xf9,0xed,0xef,0x0e,0x3b,0xe2,
  0xeb,0xd8,0xcf,0xe1,0xf3,0x08,0xab,0x23,0x0d,0x42,0x0a,0x05,0xe9,0x1a,0xff,0x0c,
  0xf9,0x15,0xe2,0xf9,0x10,0xe2,0x05,0xf6,0x14,0xc4,0xf8,0x14,0xed,0x0a,0xcc,0xe0,
  0x09,0x0f,0x00,0x08,0x1e,0x2d,0x42,0xcc,0x20,0x81,0xeb,0xe0,0xc7,0x23,0x26,0xbd,
  0x02,0xe5,0x00,0xb7,0xea,0x02,0xde,0xc3,0x35,0xcb,0xda,0xfd,0xef,0x1e,0x05,0xfd,
  0xf3,0xf0,0xf4,0xef,0x1f,0xb6,0x02,0xde,0x17,0xd0,0xe9,0xf3,0xdf,0x0c,0xf9,0xb4,
  0x02,0xd8,0x2d,0x24,0x0d,0xfb,0x08,0x2a,0xdf,0x0d,0x03,0x85,0xd9,0xdc,0x23,0xb4,
  0x1b,0x09,0xdc,0x95,0x05,0xbf,0x08,0xdc,0xf7,0x08,0x02,0x81,0xf3,0xf2,0x2b,0xc7,
  0x0b,0xfc,0x0a,0x1d,0x13,0xc9,0x0f,0xe0,0xfc,0xf0,0x1a,0xb5,0x12,0x20,0x21,0xd1,
  0x16,0xf7,0x28,0x19,0xf1,0xef,0x20,0xde,0xfb,0xbe,0xf9,0xde,0xe4,0x12,0x0a,0xda,
  0x04,0x1d,0xd0,0xf7,0xd9,0xea,0x01,0xf6,0xe5,0x05,0xfe,0xe5,0xf9,0xd3,0x14,0xff,
  0xfc,0x1c,0xe5,0x15,0x17,0xfa,0xff,0xf7,0xd4,0xf9,0xfe,0x0e,0xf0,0x00,0xe0,0xff,
  0xfa,0x02,0xff,0x15,0x02,0xfa,0xef,0xf1,0x0b,0xeb,0xf4,0x11,0xfd,0xed,0xf7,0x0d,
  0xf2,0xeb,0xfc,0xe9,0xf0,0xfc,0xf2,0xea,0xe5,0xe2,0x10,0x12,0x04,0x2e,0xd5,0x2f,
  0x07,0xf2,0xfb,0xeb,0x0e,0xde,0xa8,0xfd,0xf9,0xc5,0x04,0x0d,0x11,0x17,0xfb,0x07,
  0xfd,0x08,0x0f,0x03,0x06,0xd6,0xb6,0x06,0x00,0xf8,0x14,0x0f,0x0c,0x05,0xeb,0xef,
  0xef,0xfc,0xb9,0x81,0xfe,0x47,0x0c,0xea,0x1b,0x29,0xf6,0x89,0xe1,0x11,0x27,0xd1,
  0xc6,0xe2,0x92,0x03,0x96,0xe4,0xf5,0x3f,0xd9,0xfc,0x0f,0xe7,0xdc,0xd2,0x08,0x3a,
  0x8b,0xf6,0xe6,0x0f,0xb8,0x0d,0x1f,0x13,0x17,0xe8,0xc2,0xd8,0xe9,0xd8,0xa4,0x15,
  0xff,0xca,0x0f,0x0a,0x15,0x00,0x9f,0x33,0x2b,0x37,0x0b,0xc0,0x06,0x2b,0x0d,0xff,
  0xca,0xcc,0xe5,0x2e,0xa1,0xd9,0xee,0x13,0x22,0xfd,0x2f,0xf4,0xf3,0xd9,0x22,0x27,
  0xe0,0x0c,0xde,0xed,0x9c,0x16,0xd1,0xe3,0x26,0xe6,0xdf,0xfe,0x01,0xbb,0x37,0xdc,
  0xde,0xe4,0x57,0x36,0x17,0xb3,0x9d,0x27,0x23,0x41,0x23,0xe9,0xf7,0xd8,0xf1,0xf5,
  0x24,0x27,0x1a,0x18,0x07,0x45,0xe7,0x9f,0xe7,0xe7,0xe5,0xc2,0xef,0xa5,0x26,0x20,
  0x21,0x1d,0xa7,0x32,0x24,0x14,0x00,0x95,0xdb,0xef,0xcf,0xd6,0xed,0xeb,0x1b,0xe2,
  0x0c,0x12,0x0d,0x0c,0x09,0xf2,0x02,0xec,0x16,0x0e,0x14,0x12,0xff,0xc9,0x0e,0xfe,
  0x17,0x05,0xe2,0xeb,0xf8,0xc9,0x04,0xdc,0x00,0xdf,0x0f,0xeb,0x07,0xcb,0x0c,0xeb,
  0xef,0xcf,0x02,0xeb,0xc6,0xed,0x15,0x1f,0xde,0xfe,0x1d,0xf9,0x0b,0xe9,0x08,0x02,
  0x0c,0x24,0xfa,0xb9,0xff,0xd5,0xe4,0xe1,0x2d,0xf4,0x3e,0xfd,0xc8,0x2d,0x10,0xfe,
  0x07,0x04,0xf0,0xed,0x04,0x0a,0xf2,0xea,0xe5,0xf0,0x1a,0xf5,0xdd,0xec,0xdf,0x07,
  0xe6,0x07,0x1e,0x12,0xf7,0x14,0xe2,0x04,0xca,0x2b,0x1b,0x05,0xf8,0xc0,0xd0,0x20,
  0x13,0xd6,0x07,0xa0,0xd6,0xf5,0x81,0xf1,0xe6,0xb1,0xe3,0xee,0xea,0xf3,0x0b,0x0e,
  0x15,0x19,0x31,0xe5,0xfd,0xee,0xc8,0xe2,0xe7,0xcd,0x08,0xf4,0x04,0xb7,0xf2,0xe8,
  0x14,0x01,0x33,0x0a,0x13,0xcb,0xea,0xe9,0x04,0x08,0xf7,0xf0,0xf3,0xeb,0xd0,0x17,
  0x0f,0x15,0xb8,0x8a,0x06,0xd2,0xff,0xe5,0xf9,0xf4,0xf1,0xbb,0xdc,0x04,0x0f,0x33,
  0x31,0x27,0xbf,0xa5,0xfc,0xcb,0xf6,0x0b,0xc4,0xfb,0x28,0xee,0xc4,0xb5,0x17,0xfc,
  0xe9,0xee,0xe7,0x0e,0xa5,0x13,0xf6,0x03,0x19,0xc8,0x1b,0x1a,0x06,0x9d,0xe1,0x1b,
  0x4b,0x3b,0x07,0xbd,0xf8,0x33,0xff,0xba,0x29,0x0f,0xfc,0xdc,0xcc,0xaa,0x2c,0x0d,
  0x39,0x49,0x11,0xe2,0xda,0x08,0xfc,0x03,0x9f,0xf4,0x01,0xf3,0x04,0xb2,0xc3,0xf0,
  0xdb,0xfc,0xdf,0xf0,0xcd,0xbe,0xb6,0x28,0x02,0xd0,0xfe,0x33,0xe7,0xed,0xc3,0x2a,
  0xdb,0xdb,0x1f,0xc6,0x01,0x15,0xc7,0xf4,0xd6,0xf5,0xc4,0xa0,0xf5,0xd5,0xd2,0x0f,
  0xc2,0xda,0xf5,0xf4,0xff,0xc9,0x09,0x29,0xf4,0xb6,0xd0,0xfa,0x03,0x06,0xb1,0x09,
  0xb3,0xf2,0xdd,0xbf,0xe3,0x81,0x17,0x03,0x4d,0x92,0x09,0x08,0xf2,0x17,0xbe,0x0f,
  0x46,0x22,0xf3,0xc5,0xf9,0x1d,0x08,0x17,0xf8,0xe3,0x19,0xe9,0x04,0x81,0x07,0x09,
  0xfa,0x2d,0xbd,0xec,0xf1,0x06,0xe8,0x04,0xfa,0xd0,0xf3,0xff,0xeb,0xcb,0xf8,0xfc,
  0x26,0x1a,0xb5,0x09,0xef,0x23,0x2c,0x07,0x15,0xb2,0x10,0x03,0xe5,0xe8,0xef,0xff,
  0xbe,0xb4,0xbf,0xde,0xfe,0x0e,0xa2,0x1a,0xf0,0x23,0xe0,0x0f,0x0a,0x17,0xbf,0x26,
  0xcb,0xb4,0xc5,0xdf,0xf5,0xd6,0xb4,0x2f,0xf2,0xc0,0xdf,0x18,0xff,0x1c,0xd1,0x09,
  0xf6,0xfc,0xd4,0xe3,0xec,0xf9,0x1f,0x06,0x03,0xaa,0xe8,0x0d,0xe7,0x35,0x0d,0xdf,
  0xbe,0xa5,0xd3,0xd2,0xf6,0x36,0xc6,0xeb,0x24,0xc9,0x0a,0x09,0x0a,0x5c,0x08,0x00,
  0xf6,0xe5,0x02,0xd4,0x32,0xf1,0xe4,0xfb,0x10,0x15,0xeb,0xc8,0xee,0x0d,0x15,0xc4,
  0xe4,0xf1,0x00,0x10,0x1c,0x17,0xf6,0xfb,0x2c,0xd9,0xbf,0xab,0xc2,0xf2,0x46,0xb1,
  0x50,0x39,0xd7,0x81,0x02,0xbb,0xff,0xd7,0x0d,0x12,0xf9,0xd2,0xce,0xbb,0x45,0xa0,
  0x21,0x33,0xac,0xeb,0xe4,0xe3,0x06,0xf3,0x09,0xf4,0x10,0x07,0xc7,0xef,0x13,0xe9,
  0xd3,0xf9,0xe4,0x0b,0xfa,0xf0,0xf1,0xfd,0x27,0xfb,0xf6,0x01,0xd2,0xfb,0xf5,0x0d,
  0x02,0x00,0xce,0xa9,0xd8,0x18,0xf6,0x03,0xed,0x16,0xce,0xe5,0x1b,0xe4,0x0f,0xfe,
  0x0d,0x0f,0xe7,0x0c,0x17,0xd0,0x11,0xf8,0xe8,0x0f,0xf6,0x12,0xf4,0x13,0xe7,0x14,
  0xf4,0x0a,0xfa,0x0a,0xf1,0xd2,0xeb,0xdd,0x06,0xba,0x14,0x1e,0xf8,0xec,0xe4,0x1d,
  0xec,0x01,0xbd,0xe3,0x1c,0xfd,0xec,0x01,0x13,0x0f,0xe0,0x10,0xe2,0x0e,0xfe,0x22,
  0xf3,0xd7,0xf8,0xd6,0x05,0x14,0xe1,0xd3,0x0b,0xde,0xec,0xfe,0xf4,0x18,0xdf,0x05,
  0xdd,0x11,0x09,0xfd,0xec,0x18,0xe2,0xf4,0x0a,0xae,0xec,0xe5,0x16,0x04,0xe6,0xeb,
  0x21,0x2f,0x76,0xd9,0xe8,0x97,0xf5,0xd6,0x16,0xec,0x30,0xc1,0x18,0xe3,0xfd,0x22,
  0x31,0x2c,0x01,0x0e,0xcb,0x94,0xd2,0xea,0xcd,0x00,0x17,0x12,0x04,0xba,0x27,0x21,
  0xe3,0xfc,0xdc,0xea,0x81,0xd3,0xc4,0x03,0x2e,0xe2,0x1a,0x0a,0x43,0xc7,0x3e,0xcc,
  0x33,0xef,0x2d,0xf9,0x31,0xc6,0xca,0xcc,0xd6,0x04,0x13,0xd7,0xe4,0xcc,0xf3,0x19,
  0x2e,0x2e,0x16,0xfd,0x1a,0x92,0xcd,0xd3,0xa8,0xea,0x1c,0xe5,0xf0,0x04,0xc2,0x1a,
  0xd3,0xf5,0x36,0x34,0xf0,0xfb,0xbd,0x0d,0xb6,0xbf,0x19,0x21,0xe7,0xc2,0xf6,0x26,
  0x56,0x2e,0x3d,0xaf,0x11,0xdc,0xff,0x8d,0x0c,0xb6,0xca,0xc8,0xef,0xd6,0x27,0x53,
  0x34,0x16,0x14,0x0a,0xff,0x8f,0xda,0xfa,0xe9,0xea,0xc4,0x0a,0xdf,0x28,0xde,0x48,
  0x93,0x31,0x23,0x09,0xd4,0xb0,0xb6,0x21,0x18,0xf8,0x08,0x37,0xfa,0x24,0xac,0x2a,
  0x31,0x05,0xd3,0xae,0x0c,0x20,0x24,0xe2,0xfd,0x52,0xe6,0xa0,0x94,0xe1,0x81,0x14,
  0xdb,0xe7,0xe8,0xd5,0xb1,0xf7,0xc4,0x1e,0xb3,0x14,0x06,0x05,0xed,0x8e,0xaa,0x21,
  0xca,0x09,0x83,0xee,0x99,0xfb,0xba,0x31,0x43,0x21,0xd1,0x25,0xd3,0xe2,0x00,0xe3,
  0x2f,0x10,0x3b,0xff,0xed,0xdf,0xdd,0x04,0xc6,0x2f,0xf4,0xf0,0xe3,0xe3,0x1e,0x1f,
  0x06,0x06,0xf0,0x06,0x1a,0xa8,0xc3,0x19,0xed,0x18,0xfe,0x1f,0xd1,0xde,0xdc,0x47,
  0xfe,0xf8,0xcb,0xf3,0x0c,0xea,0xc8,0x1d,0x37,0x17,0x13,0xfe,0x03,0x90,0xe3,0xe5,
  0x10,0xdd,0x04,0x12,0x18,0x13,0xaf,0xd5,0x0c,0xe7,0xd9,0xda,0x07,0x29,0x04,0x25,
  0x24,0xfd,0x00,0x15,0xf9,0xf1,0x12,0xce,0xe5,0xd3,0x1d,0x08,0xeb,0x01,0x0a,0x05,
  0xe4,0xfe,0xf3,0xfa,0xff,0xe1,0xfb,0x00,0xe5,0x27,0x3d,0x0c,0xfb,0x03,0x18,0xf4,
  0x81,0xcf,0xbf,0xc5,0x8e,0xdc,0xdd,0x17,0x29,0x10,0x2f,0xb9,0x06,0xc3,0x6a,0x2d,
  0xde,0xec,0xe1,0xb2,0x8e,0xf3,0xf2,0xe0,0x91,0x12,0x05,0x01,0xec,0x66,0x21,0xfa,
  0xee,0x04,0xc7,0x01,0xd7,0x52,0xf8,0xe2,0x13,0x02,0x2c,0xe6,0xdc,0x07,0x75,0xcc,
  0x88,0x01,0xdd,0x90,0xe6,0xfe,0x9d,0x21,0xe5,0x3a,0x1f,0xd6,0xdb,0xe9,0x2a,0x36,
  0xdd,0xd9,0xcd,0xb1,0xb4,0xdd,0xdc,0x31,0xb8,0x3e,0x22,0x14,0x1d,0x0f,0xd3,0xed,
  0x11,0x21,0x12,0xf1,0x0e,0xfa,0xd0,0xf4,0xe4,0x46,0x1f,0xf1,0x00,0xc8,0x35,0xf9,
  0x17,0xda,0xd5,0x04,0x4d,0x1d,0xcb,0xf4,0xec,0x37,0xf5,0xd8,0xf1,0x1c,0xe0,0xdd,
  0xfe,0x9c,0xfd,0x0b,0x06,0xa7,0xc9,0x20,0xdb,0x3b,0x03,0x10,0xf9,0x26,0xb4,0xec,
  0x05,0x1f,0x05,0x11,0x62,0x3f,0x8d,0xdb,0x26,0x3e,0xef,0x07,0xdf,0xe8,0xcd,0xb6,
  0x24,0xf5,0x15,0x33,0x06,0xda,0xbd,0xf8,0x14,0xbb,0x00,0xf7,0xf7,0xc9,0xfc,0xec,
  0x1a,0x19,0x12,0x3b,0xdb,0xe9,0xaf,0x05,0xe1,0xc4,0xe8,0xff,0xf2,0xda,0x14,0x27,
  0xf7,0x07,0x25,0x27,0x02,0x16,0x09,0xab,0xf0,0xc0,0xac,0xb6,0xa7,0x00,0xe0,0xec,
  0x06,0xef,0xfb,0xce,0xcb,0xdf,0x18,0xf8,0xcb,0x11,0x19,0x81,0x0d,0xf0,0x1b,0x1e,
  0x31,0x22,0xf8,0x14,0x12,0x0e,0x28,0xea,0x86,0x49,0xe3,0xc8,0xe5,0x2b,0xde,0x07,
  0x11,0xff,0x04,0x5d,0x59,0xf2,0xf3,0xf4,0xd7,0xe3,0xed,0xc0,0xee,0xea,0xbb,0x6e,
  0x36,0x40,0x13,0xff,0xd0,0x32,0x12,0xe2,0x0b,0xf1,0xa9,0xee,0x38,0xeb,0x3a,0x04,
  0x00,0xee,0x50,0x0f,0xf9,0x39,0x1c,0xe7,0xd3,0x08,0xa8,0xe3,0x03,0x12,0xf0,0x04,
  0x00,0xd0,0x45,0x3f,0x01,0x39,0xe1,0xf1,0xd7,0xa9,0xa6,0xec,0x11,0xf0,0x89,0x33,
  0x05,0xec,0x16,0xc7,0xb7,0x16,0x20,0xc9,0x20,0x1a,0xf7,0xb3,0xef,0x09,0x28,0x8f,
  0xd9,0xe6,0xbd,0xc8,0xf7,0xd2,0x0a,0x1c,0x1f,0x22,0x0c,0xd6,0xde,0x05,0xe3,0xe8,
  0xd7,0xb6,0x0a,0xe0,0xf1,0xc6,0xfd,0xfd,0xf9,0xa4,0x26,0xd8,0xba,0xfc,0x06,0xfd,
  0x17,0xf8,0xe7,0xf0,0xe9,0xc8,0x0e,0xf8,0x26,0x1e,0x07,0x0b,0x16,0x1a,0x15,0xe6,
  0x11,0xe7,0x03,0xf5,0xee,0xc6,0x01,0xfa,0x13,0xe6,0x1f,0x01,0xef,0x27,0x01,0x1c,
  0xdc,0xf4,0x7f,0xcf,0xf3,0x03,0xf7,0xfd,0xfb,0xd1,0xe3,0x87,0xd1,0x1f,0xf5,0x10,
  0xe6,0xdf,0x23,0x08,0x10,0x08,0xf5,0x05,0x1a,0x3e,0xd1,0xe5,0x36,0x1b,0xe6,0xdf,
  0x09,0x1e,0x1b,0x11,0x15,0x21,0x1c,0xdc,0x08,0x10,0xe4,0xd7,0x35,0xee,0x0e,0xdf,
  0x03,0x32,0x1d,0x1c,0xea,0x30,0x03,0xca,0xdb,0x03,0xec,0xd4,0x10,0x93,0x0e,0xda,
  0x33,0xf0,0xc3,0xf9,0xf2,0xf1,0x30,0x0f,0x9f,0x04,0x22,0x04,0xfd,0xdf,0xd3,0x27,
  0xfb,0xce,0xc1,0xfe,0x26,0xfd,0xbd,0x19,0xdf,0x12,0xe3,0xf6,0x17,0x07,0xdd,0x16,
  0xed,0x00,0x08,0x11,0x28,0x29,0xd5,0xea,0x18,0xda,0xcf,0x1d,0xf7,0x18,0x22,0xdc,
  0xfe,0xed,0xe9,0xd2,0xdd,0x1d,0xc8,0xde,0x0a,0xf4,0x35,0x04,0xd1,0x18,0x02,0x14,
  0x04,0x19,0xd1,0xfa,0x00,0x0e,0xd3,0xea,0x13,0xde,0xe1,0x11,0xf3,0x1f,0xef,0xe6,
  0xde,0x0e,0xea,0x1c,0x27,0x53,0xf4,0xba,0x0f,0xaa,0xa2,0xdc,0xdf,0x1e,0x01,0xf0,
  0xe2,0xa8,0xe8,0x9a,0xf9,0x3f,0xd4,0xc4,0x19,0x81,0xf8,0x06,0x00,0x31,0x13,0xe9,
  0x10,0x08,0x1b,0xfb,0x14,0x24,0xef,0xde,0x09,0x92,0xe4,0xd8,0x17,0xe1,0x0e,0xb2,
  0xc1,0x0c,0x02,0x3c,0x1e,0xfe,0xea,0x34,0xc1,0xc4,0xcd,0xb6,0x08,0xd9,0xf9,0xbc,
  0xe5,0xcc,0x0b,0xe5,0x00,0x4d,0xf4,0x00,0xd2,0x2e,0x0c,0xf8,0x21,0xc9,0xf9,0x0b,
  0x15,0x0b,0x22,0x29,0x11,0x2c,0x14,0xe4,0xe2,0x07,0x01,0x09,0xed,0xd9,0x1f,0x13,
  0x1d,0x0b,0xef,0x1f,0xee,0x4f,0x41,0xcf,0x08,0xe0,0x21,0x03,0xd5,0xfc,0x17,0x15,
  0xbe,0xc5,0xd7,0x1a,0xee,0x10,0xfe,0x0f,0xc6,0xff,0xe6,0xf6,0xf9,0xd1,0x0d,0xba,
  0xd3,0xfc,0xd9,0x28,0xcb,0x05,0x2c,0xfc,0xb2,0x0e,0xcb,0xef,0x0e,0xd6,0xd2,0xc4,
  0xf7,0x01,0xca,0x05,0xd7,0x14,0xce,0xdd,0x1b,0xeb,0xe9,0x1c,0xf7,0x13,0x00,0xfe,
  0xae,0xed,0x01,0xdf,0x17,0x22,0x2c,0x21,0xd4,0xac,0xee,0xfb,0xf3,0xe3,0x7f,0xa9,
  0xd7,0xd9,0x24,0x16,0xda,0x04,0x1e,0x16,0xd1,0xc2,0xeb,0x04,0x28,0x03,0x35,0xd5,
  0xb0,0xe6,0xf1,0xfa,0xd2,0xf5,0x17,0x16,0x0a,0xc8,0xdc,0x15,0x17,0x1d,0x0c,0xe7,
  0xe8,0xab,0xf2,0xde,0xb0,0x0f,0x57,0x1a,0x1c,0xea,0x03,0xc6,0xf4,0xf6,0x29,0x92,
  0xfb,0xd0,0xe1,0xf3,0x10,0x08,0xe4,0x11,0x1e,0x0b,0x20,0xe2,0x00,0xbc,0xe1,0x22,
  0x05,0x1b,0xa9,0x0a,0x25,0x0c,0xec,0xee,0x19,0xbd,0xd9,0x10,0x0c,0xe4,0xed,0x1f,
  0xe8,0xac,0x18,0xa0,0xc6,0xe2,0x28,0x06,0x20,0xed,0x1e,0xd4,0x08,0xf3,0x01,0xd5,
  0x14,0x10,0xd8,0xe7,0xfc,0x19,0xea,0xfb,0x10,0x2c,0x14,0x11,0x02,0xe0,0xfe,0x15,
  0xfb,0x0d,0x14,0x24,0x1b,0x5f,0x1d,0xae,0xe2,0x92,0xbf,0xe3,0xd1,0xfa,0xe7,0x21,
  0x00,0xa4,0x3a,0xb6,0xe9,0xe3,0xe5,0xff,0x07,0xb0,0x11,0xdd,0xca,0xd9,0x03,0xec,
  0xff,0xe8,0x41,0xd7,0x03,0x21,0xef,0x14,0x31,0xc2,0x2e,0xf9,0xb5,0xe7,0xf4,0x01,
  0xce,0x15,0x29,0x16,0xf7,0x0c,0x1a,0xea,0xcc,0x81,0x02,0xdd,0xd6,0xe4,0xf3,0xdb,
  0xbe,0xc3,0xa8,0xdc,0xff,0x0f,0x19,0x2b,0x0f,0x2f,0x0a,0xb1,0x15,0xf9,0xd1,0xf3,
  0xe5,0xfe,0xe4,0x07,0xd2,0xed,0x25,0x25,0xda,0xf4,0xc2,0xe0,0xee,0x2a,0xe1,0xb1,
  0xfa,0xe3,0xb0,0xeb,0xbf,0xf3,0xf2,0xdf,0xff,0x05,0xb4,0xe1,0xe0,0xc6,0xed,0xa0,
  0x12,0xe9,0x41,0xdd,0x20,0x81,0xdf,0x08,0xc6,0x28,0x04,0x0b,0xf6,0x29,0xea,0x16,
  0xef,0xdd,0x1e,0xe1,0xdd,0x9f,0xfd,0x1e,0xdb,0x0a,0x08,0x21,0x06,0x1f,0xbb,0x06,
  0xdd,0xee,0xd0,0x09,0xc9,0x07,0x05,0x1f,0xe7,0x0e,0xf7,0x03,0xe7,0xf0,0xd1,0xf3,
  0x0d,0xf6,0x3f,0xff,0x2e,0x21,0xbf,0xc8,0x27,0xd9,0x12,0xd1,0xf2,0x12,0x40,0xe3,
  0xf4,0x03,0x13,0xfa,0x21,0x00,0x9f,0xd6,0xd3,0xf8,0x2e,0x23,0x0c,0xfc,0x0f,0x20,
  0xe7,0xf1,0xdf,0xef,0x01,0xf6,0xf3,0x15,0x01,0x18,0x1d,0x2c,0xfe,0x17,0x0a,0x03,
  0x1c,0xd5,0xcd,0xdc,0xcf,0xd8,0x3a,0x28,0x85,0xee,0x00,0xcb,0xe6,0xeb,0xbf,0x0f,
  0xf3,0xbd,0xe0,0x15,0x11,0x05,0x42,0x0b,0xdf,0xf3,0x07,0xe1,0x23,0x24,0xc1,0x32,
  0x8b,0xb0,0xf3,0x0e,0x0d,0x09,0xcd,0x1e,0xa9,0xfe,0xf4,0xe2,0x2a,0x2a,0xe0,0x10,
  0x34,0xfa,0x09,0xcb,0xc9,0xb3,0xfb,0x11,0x0b,0xff,0x11,0x11,0xef,0x31,0xd6,0xfa,
  0x28,0xc3,0xf0,0xc8,0xd9,0x45,0x0f,0xd6,0x02,0x25,0x08,0x24,0xef,0x2c,0x0c,0x09,
  0xc5,0xae,0xd0,0xcb,0x19,0x3b,0xfd,0xc3,0x2a,0x39,0xba,0xc4,0xbf,0x09,0x0f,0xd2,
  0x27,0xf9,0xe4,0xaf,0xd5,0x0e,0xb1,0xec,0x1e,0x95,0x2d,0x12,0xdf,0xeb,0x1a,0xf1,
  0xc8,0x0c,0xcb,0xbb,0xe1,0x00,0xc8,0xfb,0xf1,0x97,0x28,0x37,0x17,0x38,0xf3,0x0d,
  0xd5,0xd0,0xcd,0xd3,0x2a,0xe0,0xf7,0xba,0x1b,0x81,0xa4,0x11,0xdd,0x3c,0xde,0x21,
  0x09,0x27,0xdd,0x14,0x07,0xde,0x0b,0x1b,0x20,0xf2,0xec,0xde,0x0e,0xc4,0x09,0xd7,
  0x2a,0x2f,0xb6,0x19,0xdf,0x04,0x16,0xf6,0x5d,0x03,0xf9,0xe6,0x90,0xf3,0x1d,0xf2,
  0xf5,0x14,0x37,0xfc,0xa5,0xf3,0x28,0x19,0x16,0x14,0xdb,0xcf,0xb0,0x12,0xef,0x0a,
  0xfe,0x15,0x0c,0x26,0xf5,0xcf,0xe3,0x01,0x0b,0x08,0x01,0xdb,0x1d,0x02,0x14,0xdb,
  0x13,0x1c,0xe5,0xf0,0x1a,0xc6,0x29,0xad,0x2c,0x1c,0x1a,0xfa,0xdc,0xf4,0x04,0xad,
  0x0b,0x0b,0xe7,0xc8,0xc8,0xf9,0x10,0xda,0x27,0xf0,0x18,0x04,0xc2,0xf0,0x0d,0xeb,
  0xe4,0xe5,0xf6,0xc7,0xeb,0x81,0x2f,0xf7,0x0d,0x16,0xf9,0xeb,0x2e,0x37,0x2c,0xad,
  0xdc,0x07,0xf9,0xa9,0x08,0xb4,0x28,0xa1,0x1c,0x31,0xde,0xbe,0xed,0x2e,0xfd,0xc0,
  0x28,0xff,0xd7,0x02,0x32,0xde,0x0b,0x8c,0x33,0xe6,0xdc,0xb4,0xbe,0x06,0xdd,0xdd,
  0xd0,0x9f,0xc8,0x01,0xd9,0xfd,0xe9,0xf8,0x08,0x05,0xe7,0x01,0x01,0x0c,0xe9,0x34,
  0xcf,0xd7,0x81,0x0d,0xdc,0xe2,0xc2,0x08,0xc0,0x06,0xf1,0xbf,0xd3,0xed,0xe6,0x2a,
  0xa0,0xcc,0xaa,0x0e,0xf5,0x0b,0xe9,0x08,0xf2,0xd3,0xe9,0x04,0x07,0x92,0xda,0x2f,
  0xcd,0xa1,0x99,0xb9,0xb0,0x72,0xe3,0x14,0xe2,0x29,0x08,0xf7,0x24,0x20,0x1f,0x34,
  0xcf,0xd6,0xd9,0xfd,0xa8,0x30,0xea,0x26,0xf9,0x0b,0xe8,0xd9,0x21,0xf5,0x3f,0x1a,
  0xc5,0x08,0x0c,0x04,0xad,0x34,0xfb,0x13,0x21,0x0c,0x02,0xfe,0xf2,0xf9,0x50,0x11,
  0x02,0xbd,0xeb,0xea,0x18,0xf1,0xb1,0x13,0xe4,0x5b,0x41,0xc9,0xe3,0xd3,0x31,0xd7,
  0xe3,0x0b,0x48,0x2c,0x36,0xcb,0xc2,0xe3,0xc9,0x53,0x0b,0xb8,0x13,0x9f,0xc5,0xeb,
  0x1e,0x36,0x18,0x38,0x03,0x2a,0x0a,0xd6,0x9d,0xed,0xcc,0xf1,0x08,0xc3,0x50,0xcb,
  0xc0,0xf9,0x2a,0xf4,0xcd,0xc3,0xc6,0x28,0x0c,0x10,0x0c,0x07,0x0c,0xed,0xcc,0x0a,
  0xaa,0xee,0xfa,0xc3,0x81,0xe3,0xac,0xfe,0x2b,0x1b,0x1a,0xed,0x0d,0xc6,0xfb,0xf6,
  0xdc,0xf4,0xc5,0xe6,0xd1,0x1d,0x9e,0x10,0x0c,0x0e,0x07,0xf5,0x00,0xa8,0x14,0xdc,
  0x12,0x0f,0x02,0x25,0x19,0x0f,0xe9,0x05,0x18,0xef,0x39,0xeb,0xc7,0xb4,0x1d,0x10,
  0x29,0x1e,0x07,0x31,0x2d,0xd3,0xf7,0xea,0xe8,0xf7,0x22,0xc9,0xed,0xbd,0x13,0xca,
  0xfa,0xdc,0xf2,0x27,0x51,0xcd,0xf2,0x07,0xef,0xa5,0x1d,0xc6,0xe9,0x14,0x0c,0x17,
  0x14,0x13,0x20,0xf4,0xe3,0xf2,0xff,0xc4,0x03,0x28,0x0b,0xe6,0x02,0x15,0xd9,0x29,
  0x06,0x03,0x2c,0x16,0x02,0xd8,0x21,0xd2,0x12,0x37,0x08,0xed,0x2d,0xe5,0x26,0xbe,
  0xea,0x12,0x28,0xfd,0xdd,0xeb,0x07,0x07,0x24,0x22,0xa7,0xbc,0x15,0x07,0x3a,0xd9,
  0xff,0xd9,0xe1,0xa4,0xd0,0x01,0x02,0x10,0x0a,0xe0,0x12,0x95,0x00,0xf7,0x0f,0xdb,
  0x1c,0x07,0x07,0xf6,0x13,0xdb,0x01,0xd2,0x13,0x03,0xfb,0xd0,0x00,0x02,0x14,0x10,
  0x0a,0xbc,0x2b,0xf0,0x0b,0xf8,0x0f,0xd9,0xf2,0xf0,0x01,0xa7,0xfd,0x3c,0xe1,0x17,
  0x17,0xf6,0xec,0xfe,0xfb,0xd4,0x15,0xfc,0x00,0xe4,0x17,0x81,0xf7,0xe8,0x05,0xfc,
  0x1f,0x10,0x0f,0x22,0x1a,0xe5,0xff,0xd9,0xbe,0xea,0xe5,0xc4,0xff,0xf1,0xf8,0xeb,
  0xff,0x00,0xbe,0x01,0xd7,0x1a,0xed,0x08,0x07,0xda,0xfc,0x15,0x07,0x0d,0xf0,0x01,
  0xfe,0x0b,0x10,0x08,0xf3,0x14,0x09,0xf0,0xf9,0xda,0xef,0xe0,0x00,0xf2,0x1d,0x33,
  0x06,0xf6,0x21,0xf6,0xf6,0x05,0xe5,0x03,0xee,0xe6,0x01,0x03,0x0d,0x01,0xe1,0x10,
  0xfc,0xf6,0xed,0xf6,0xdc,0xe8,0xc5,0x11,0x06,0xd9,0x10,0x1b,0x15,0x2a,0xef,0x08,
  0xfa,0x0e,0xc2,0xf4,0xcf,0xfa,0x42,0x15,0x1e,0xd5,0xf7,0xd5,0x27,0xf6,0x47,0xaa,
  0x0b,0x43,0xf7,0x00,0xe7,0xff,0x20,0xf9,0x04,0xb9,0xd4,0x98,0xce,0xd8,0x26,0xc5,
  0xe4,0x29,0x2c,0x38,0x17,0x08,0xce,0xf3,0xdd,0xb4,0xda,0xb1,0x98,0x9c,0xdb,0xe6,
  0xd7,0xe8,0x1f,0xb7,0x81,0x02,0x25,0x18,0x04,0xd9,0x41,0x9d,0x3f,0x10,0x3f,0xd0,
  0xe7,0x0f,0x17,0x9b,0xcb,0xde,0xf3,0xe7,0x20,0xe5,0x0f,0xc6,0x52,0xed,0x2b,0xb6,
  0x05,0x16,0x67,0xcd,0xe8,0xae,0x10,0x15,0x20,0xb0,0x0c,0xd5,0x3a,0xd6,0x12,0xc5,
  0xeb,0xcd,0x09,0xea,0x36,0xbe,0xc2,0x0e,0xfd,0x17,0x26,0xe4,0x13,0x0c,0x10,0x4e,
  0xf5,0xfa,0xf3,0xd0,0x44,0xc3,0xee,0x20,0xcf,0x54,0x2d,0xc7,0x0e,0x35,0xb7,0xf7,
  0x06,0x34,0x14,0x08,0xe8,0xc2,0x31,0xf5,0x1b,0x09,0xfc,0x1c,0xf5,0x19,0xec,0xaa,
  0xf5,0xb7,0x0a,0xea,0xcd,0x81,0x0f,0x0e,0x03,0x17,0x36,0xef,0x11,0xc0,0x03,0x16,
  0xd1,0xba,0xfb,0xd2,0xac,0xc6,0xdc,0x1b,0x20,0xf6,0x12,0xd5,0xfc,0xfe,0x01,0x14,
  0xd8,0xe2,0xf5,0xfd,0xbe,0x45,0x0c,0xf1,0xee,0x0d,0xe9,0x06,0xfe,0xe9,0x34,0xf2,
  0xf1,0xc3,0x26,0xc2,0xbb,0x22,0xbf,0x01,0x1a,0xfe,0x1f,0x24,0x08,0x01,0x10,0xfb,
  0xdb,0xee,0xd8,0x03,0xef,0x0d,0xca,0xfd,0xfe,0x0e,0x01,0xf5,0x0b,0xff,0x12,0xf9,
  0xe2,0xfa,0xcd,0x18,0xfe,0x48,0xe6,0x20,0x09,0x0f,0xd3,0xf4,0x03,0xef,0x05,0xf0,
  0xca,0xbf,0xb4,0xba,0xfa,0x48,0xff,0xec,0xf6,0x17,0xce,0xfc,0x15,0x19,0x09,0xce,
  0xfc,0xec,0xd9,0x26,0x23,0x1d,0x03,0x03,0x06,0x1a,0xdc,0xfd,0x03,0x02,0x09,0xe1,
  0xf5,0xfe,0x2f,0x25,0x1d,0x0a,0xf2,0xfa,0x1b,0x00,0xe3,0x08,0xfa,0x0a,0x00,0xed,
  0x09,0xc3,0xdb,0xf3,0x25,0x04,0xf6,0x1a,0x1f,0x22,0xe1,0xd6,0x5e,0x06,0x15,0x88,
  0x09,0x1d,0xcd,0x0b,0x42,0x15,0x14,0xdb,0xc5,0xf8,0xd3,0xd0,0x2c,0xe3,0x07,0x8a,
  0x23,0xe6,0xce,0xe2,0xf4,0x0f,0x47,0xca,0xc2,0xc0,0xa8,0x8e,0xf6,0xde,0x15,0x81,
  0x22,0xb3,0x76,0xf5,0xc9,0xc3,0x2c,0xe7,0x33,0xcf,0x2e,0xc8,0x18,0x2b,0x1c,0x12,
  0xff,0xb9,0x3a,0x25,0x2f,0xc4,0x34,0xd7,0xec,0xa3,0x36,0xba,0x0b,0xea,0xf3,0xea,
  0xca,0x8b,0x0a,0xfe,0x07,0xb1,0x30,0x17,0xe6,0xe9,0x16,0xc2,0x44,0x12,0xfd,0xea,
  0xe5,0xec,0x16,0xea,0xc4,0xfb,0xd0,0x05,0x21,0xd3,0x0e,0x07,0x40,0x32,0x20,0x06,
  0xf5,0xee,0x0e,0xf2,0xb1,0xed,0xd2,0x05,0xee,0x01,0x15,0xfc,0x21,0x22,0xeb,0x25,
  0xdb,0xff,0xe0,0xe9,0xb4,0xf8,0xc7,0x2a,0x05,0xf4,0x08,0x0d,0x19,0xf4,0x37,0xb6,
  0xfe,0xf7,0xff,0xff,0x04,0x00,0x00,0x00,0x80,0x00,0x00,0x00,0x39,0x00,0x00,0x00,
  0x4a,0x00,0x00,0x00,0x3e,0x00,0x00,0x00,0xe4,0xff,0xff,0xff,0xf6,0xff,0xff,0xff,
  0x15,0x00,0x00,0x00,0xf5,0xff,0xff,0xff,0x23,0x00,0x00,0x00,0xcb,0xff,0xff,0xff,
  0x1e,0x00,0x00,0x00,0x0d,0x00,0x00,0x00,0xdf,0xff,0xff,0xff,0x4a,0x00,0x00,0x00,
  0x5b,0x00,0x00,0x00,0x27,0x00,0x00,0x00,0xf9,0xff,0xff,0xff,0x2f,0x00,0x00,0x00,
  0x1c,0x00,0x00,0x00,0x5b,0x00,0x00,0x00,0x02,0x00,0x00,0x00,0x39,0x00,0x00,0x00,
  0x3f,0x00,0x00,0x00,0x42,0x00,0x00,0x00,0xfc,0xff,0xff,0xff,0x14,0x00,0x00,0x00,
  0x02,0x00,0x00,0x00,0xba,0xff,0xff,0xff,0x3c,0x00,0x00,0x00,0x22,0x00,0x00,0x00,
  0xfa,0xff,0xff,0xff,0x02,0x00,0x00,0x00,0x6f,0x00,0x00,0x00,0x8a,0xf8,0xff,0xff,
  0x04,0x00,0x00,0x00,0x80,0x02,0x00,0x00,0x23,0x9b,0xf8,0xab,0x00,0xdf,0x05,0x01,
  0xe8,0xcf,0x1d,0x38,0x21,0x11,0x0f,0xbe,0x10,0x15,0xda,0xd8,0xed,0xb4,0x15,0x0d,
  0xd6,0x1c,0x00,0xe3,0xef,0x92,0x1b,0x01,0x0b,0xd8,0xfb,0x2c,0xc8,0x26,0x21,0x0b,
  0xc2,0x12,0xda,0x22,0x26,0x8c,0x0e,0x1e,0x13,0xd9,0xfc,0xb1,0xa7,0x81,0xff,0x1e,
  0x23,0xdd,0xeb,0xdb,0x1c,0x02,0xb6,0x0f,0x06,0xd3,0xe6,0xfe,0xf0,0xfd,0x28,0xe6,
  0xe2,0xed,0xa6,0xeb,0xfa,0xe3,0xfb,0xe3,0x1b,0x81,0xf0,0xb1,0x25,0xdf,0x0a,0xf0,
  0x23,0x2d,0xc4,0xec,0x2e,0xf8,0x1b,0x00,0xf5,0x1c,0xe2,0xcf,0xf2,0x1e,0x1c,0x0e,
  0x15,0xa4,0x18,0xe9,0x8a,0xe5,0xd4,0xc6,0xa4,0x0a,0xb8,0x1e,0xf7,0x12,0x38,0xe9,
  0x16,0x2e,0x10,0xdf,0xbc,0x12,0x1f,0x17,0x3a,0x4f,0x10,0xf4,0xb7,0xed,0x26,0xcc,
  0xfc,0x9f,0xfb,0xba,0x94,0x9f,0x9f,0xf3,0x1b,0xf6,0xef,0x1a,0xe0,0x05,0x32,0x26,
  0xdc,0x17,0x31,0xe0,0xaf,0x13,0x38,0x13,0x35,0xa2,0xea,0xc8,0x40,0xec,0xc7,0xee,
  0x2e,0xb9,0x4e,0x31,0xd1,0x83,0xbd,0x29,0x2a,0x1f,0xff,0xff,0x0b,0x81,0x2d,0x21,
  0xb6,0x3a,0x24,0x3b,0xe8,0x14,0x17,0x07,0xa5,0xca,0xdb,0x19,0x41,0x37,0xf7,0x26,
  0x8d,0x37,0x8b,0xc3,0x34,0xc0,0xbe,0x0a,0x8b,0x96,0xc1,0x18,0xad,0x36,0x11,0x25,
  0x1f,0xbf,0xc9,0x19,0x17,0x0f,0x15,0x0d,0x42,0x91,0x0a,0xe7,0xc3,0xcc,0x2a,0x20,
  0xee,0xe5,0x37,0xd7,0xb4,0xd5,0xa4,0x0d,0x02,0x18,0x15,0x0e,0xdb,0x37,0xe4,0x1d,
  0xe3,0x84,0x28,0x81,0xa3,0xde,0x3f,0xc7,0x28,0x55,0x0e,0x19,0x21,0x2b,0xe7,0xc0,
  0x20,0x1c,0x02,0xab,0xc3,0x31,0x1b,0x26,0x0d,0xdd,0xfb,0x02,0x26,0xd9,0xf8,0xc1,
  0x21,0xee,0x81,0x17,0xed,0x29,0xd7,0xe7,0xa0,0xd3,0x83,0xf8,0x32,0xb6,0xc8,0x99,
  0x26,0x28,0xd6,0x21,0x1c,0x25,0x2e,0x20,0xe0,0x1a,0xed,0x0d,0x23,0x2c,0xca,0x9c,
  0xbe,0x37,0x0b,0x1f,0xe1,0x20,0xa3,0xa6,0xf4,0x00,0xf2,0x08,0x1e,0x16,0x81,0x09,
  0xc3,0x03,0xf7,0x2b,0x11,0x1b,0xfe,0x04,0xce,0x13,0x18,0x07,0xba,0x0f,0xf1,0x13,
  0x0e,0xea,0x1c,0x09,0xcd,0x08,0xc8,0x06,0xc9,0x19,0x04,0xca,0xcc,0xf8,0x1b,0x10,
  0xcf,0x18,0xc4,0xcf,0xe3,0xf1,0xec,0x0c,0xba,0xee,0x10,0x14,0xcf,0x1b,0x06,0xd6,
  0x06,0xe1,0xf7,0x0f,0x20,0xe5,0xe6,0x0e,0x15,0xd5,0x09,0x96,0x14,0xa0,0xef,0xad,
  0xf5,0x81,0x0a,0x24,0x0d,0x36,0x1d,0xc2,0x01,0x22,0x1e,0xa0,0xf3,0xd1,0x9a,0xb4,
  0x31,0xdb,0x1d,0x92,0xd0,0xd2,0x05,0x9d,0xe2,0x25,0x07,0x26,0xb1,0x17,0xd3,0x19,
  0xdc,0x28,0x1d,0x1b,0x1f,0xba,0x22,0x23,0xe7,0xd0,0x18,0x1b,0x88,0xf8,0x2b,0xc6,
  0x86,0x23,0x06,0x12,0x36,0x1a,0x14,0xcc,0xd8,0x04,0x16,0x0e,0xe7,0x18,0xf6,0x0f,
  0x15,0x1b,0xf8,0x1c,0x81,0xf2,0xcc,0xfa,0x0e,0xce,0xd8,0x0c,0x11,0x14,0x18,0x13,
  0x12,0x12,0xff,0x0c,0xef,0x11,0x1b,0x09,0x03,0xdf,0xbb,0xd4,0x1b,0xd6,0x20,0xb9,
  0x18,0x11,0x07,0xb3,0xd5,0x0e,0xdb,0xcd,0x03,0x0e,0xbb,0xec,0x1a,0xe7,0xdd,0x17,
  0x1d,0xef,0x04,0xe9,0x16,0x12,0x1d,0x0d,0x16,0x93,0x22,0x1d,0x31,0x32,0x02,0x17,
  0x2e,0xd5,0x45,0x09,0xca,0x24,0x01,0x81,0x04,0x19,0xd1,0x30,0xc8,0x4a,0xa7,0xea,
  0xa2,0x0c,0xfb,0xb3,0x18,0xab,0x94,0xe1,0x31,0xbd,0x08,0xc6,0x12,0x42,0xb5,0x20,
  0x23,0x26,0xe4,0xa0,0xbb,0xbc,0x32,0x27,0x23,0x10,0x1a,0x1a,0x2e,0x02,0x43,0x08,
  0xd9,0xc5,0x08,0x03,0x02,0xf8,0xff,0xb5,0xe5,0x2d,0xb8,0x16,0x18,0x24,0x02,0x00,
  0x14,0x1e,0x24,0x23,0xe3,0x03,0xf8,0x14,0x03,0x15,0xb7,0x12,0x1a,0xfc,0xdf,0x0f,
  0x11,0x08,0xfa,0x10,0x0b,0x1a,0xf1,0xfb,0x22,0xea,0x00,0x2c,0x0e,0xb4,0xfe,0xed,
  0x17,0x17,0xb4,0xe9,0x2a,0x1e,0x21,0x15,0x17,0xaf,0x0e,0xcc,0x18,0x1e,0xcd,0x0b,
  0x12,0xc1,0x81,0xd0,0x2c,0x8e,0xf2,0xd5,0x16,0xfb,0xff,0xff,0x04,0x00,0x00,0x00,
  0x28,0x00,0x00,0x00,0xc7,0xff,0xff,0xff,0xd7,0x01,0x00,0x00,0xa7,0x00,0x00,0x00,
  0x49,0x01,0x00,0x00,0x09,0xff,0xff,0xff,0xc5,0x01,0x00,0x00,0xfe,0xfc,0xff,0xff,
  0x5d,0xfe,0xff,0xff,0x9c,0x03,0x00,0x00,0x07,0xfe,0xff,0xff,0x4a,0xfb,0xff,0xff,
  0x04,0x00,0x00,0x00,0x08,0x00,0x00,0x00,0x01,0x00,0x00,0x00,0x02,0x00,0x00,0x00,
  0x54,0xc2,0xff,0xff,0x58,0xc2,0xff,0xff,0x0f,0x00,0x00,0x00,0x4d,0x4c,0x49,0x52,
  0x20,0x43,0x6f,0x6e,0x76,0x65,0x72,0x74,0x65,0x64,0x2e,0x00,0x01,0x00,0x00,0x00,
  0x14,0x00,0x00,0x00,0x00,0x00,0x0e,0x00,0x18,0x00,0x14,0x00,0x10,0x00,0x0c,0x00,
  0x08,0x00,0x04,0x00,0x0e,0x00,0x00,0x00,0x14,0x00,0x00,0x00,0x1c,0x00,0x00,0x00,
  0x18,0x06,0x00,0x00,0x1c,0x06,0x00,0x00,0x20,0x06,0x00,0x00,0x04,0x00,0x00,0x00,
  0x6d,0x61,0x69,0x6e,0x00,0x00,0x00,0x00,0x18,0x00,0x00,0x00,0xe0,0x05,0x00,0x00,
  0x84,0x05,0x00,0x00,0x20,0x05,0x00,0x00,0xdc,0x04,0x00,0x00,0x98,0x04,0x00,0x00,
  0x54,0x04,0x00,0x00,0x14,0x04,0x00,0x00,0xd0,0x03,0x00,0x00,0x8c,0x03,0x00,0x00,
  0x48,0x03,0x00,0x00,0x10,0x03,0x00,0x00,0xcc,0x02,0x00,0x00,0x88,0x02,0x00,0x00,
  0x44,0x02,0x00,0x00,0x00,0x02,0x00,0x00,0xc8,0x01,0x00,0x00,0x84,0x01,0x00,0x00,
  0x40,0x01,0x00,0x00,0xfc,0x00,0x00,0x00,0xc4,0x00,0x00,0x00,0x90,0x00,0x00,0x00,
  0x58,0x00,0x00,0x00,0x24,0x00,0x00,0x00,0x04,0x00,0x00,0x00,0x8a,0xfa,0xff,0xff,
  0x08,0x00,0x00,0x00,0x0c,0x00,0x00,0x00,0x01,0x00,0x00,0x00,0x35,0x00,0x00,0x00,
  0x01,0x00,0x00,0x00,0x34,0x00,0x00,0x00,0x02,0xfb,0xff,0xff,0x14,0x00,0x00,0x00,
  0x00,0x00,0x00,0x09,0x14,0x00,0x00,0x00,0x18,0x00,0x00,0x00,0x06,0x00,0x00,0x00,
  0x4e,0xfc,0xff,0xff,0x00,0x00,0x80,0x3f,0x01,0x00,0x00,0x00,0x34,0x00,0x00,0x00,
  0x01,0x00,0x00,0x00,0x33,0x00,0x00,0x00,0x32,0xfb,0xff,0xff,0x14,0x00,0x00,0x00,
  0x00,0x00,0x00,0x08,0x10,0x00,0x00,0x00,0x14,0x00,0x00,0x00,0x05,0x00,0x00,0x00,
  0x74,0xc3,0xff,0xff,0x01,0x00,0x00,0x00,0x33,0x00,0x00,0x00,0x03,0x00,0x00,0x00,
  0x32,0x00,0x00,0x00,0x03,0x00,0x00,0x00,0x02,0x00,0x00,0x00,0x66,0xfb,0xff,0xff,
  0x14,0x00,0x00,0x00,0x00,0x00,0x00,0x1b,0x10,0x00,0x00,0x00,0x14,0x00,0x00,0x00,
  0x04,0x00,0x00,0x00,0xa8,0xc3,0xff,0xff,0x01,0x00,0x00,0x00,0x32,0x00,0x00,0x00,
  0x02,0x00,0x00,0x00,0x31,0x00,0x00,0x00,0x01,0x00,0x00,0x00,0x96,0xfb,0xff,0xff,
  0x14,0x00,0x00,0x00,0x00,0x00,0x00,0x0a,0x14,0x00,0x00,0x00,0x18,0x00,0x00,0x00,
  0x03,0x00,0x00,0x00,0xe2,0xfc,0xff,0xff,0xff,0xff,0xff,0xff,0x01,0x00,0x00,0x00,
  0x31,0x00,0x00,0x00,0x02,0x00,0x00,0x00,0x2f,0x00,0x00,0x00,0x30,0x00,0x00,0x00,
  0xca,0xfb,0xff,0xff,0x14,0x00,0x00,0x00,0x00,0x00,0x00,0x01,0x1c,0x00,0x00,0x00,
  0x20,0x00,0x00,0x00,0x01,0x00,0x00,0x00,0xbc,0xfb,0xff,0xff,0x00,0x00,0x00,0x01,
